<unk>	0
<s>	0
</s>	0
<0x00>	0
<0x01>	0
<0x02>	0
<0x03>	0
<0x04>	0
<0x05>	0
<0x06>	0
<0x07>	0
<0x08>	0
<0x09>	0
<0x0A>	0
<0x0B>	0
<0x0C>	0
<0x0D>	0
<0x0E>	0
<0x0F>	0
<0x10>	0
<0x11>	0
<0x12>	0
<0x13>	0
<0x14>	0
<0x15>	0
<0x16>	0
<0x17>	0
<0x18>	0
<0x19>	0
<0x1A>	0
<0x1B>	0
<0x1C>	0
<0x1D>	0
<0x1E>	0
<0x1F>	0
<0x20>	0
<0x21>	0
<0x22>	0
<0x23>	0
<0x24>	0
<0x25>	0
<0x26>	0
<0x27>	0
<0x28>	0
<0x29>	0
<0x2A>	0
<0x2B>	0
<0x2C>	0
<0x2D>	0
<0x2E>	0
<0x2F>	0
<0x30>	0
<0x31>	0
<0x32>	0
<0x33>	0
<0x34>	0
<0x35>	0
<0x36>	0
<0x37>	0
<0x38>	0
<0x39>	0
<0x3A>	0
<0x3B>	0
<0x3C>	0
<0x3D>	0
<0x3E>	0
<0x3F>	0
<0x40>	0
<0x41>	0
<0x42>	0
<0x43>	0
<0x44>	0
<0x45>	0
<0x46>	0
<0x47>	0
<0x48>	0
<0x49>	0
<0x4A>	0
<0x4B>	0
<0x4C>	0
<0x4D>	0
<0x4E>	0
<0x4F>	0
<0x50>	0
<0x51>	0
<0x52>	0
<0x53>	0
<0x54>	0
<0x55>	0
<0x56>	0
<0x57>	0
<0x58>	0
<0x59>	0
<0x5A>	0
<0x5B>	0
<0x5C>	0
<0x5D>	0
<0x5E>	0
<0x5F>	0
<0x60>	0
<0x61>	0
<0x62>	0
<0x63>	0
<0x64>	0
<0x65>	0
<0x66>	0
<0x67>	0
<0x68>	0
<0x69>	0
<0x6A>	0
<0x6B>	0
<0x6C>	0
<0x6D>	0
<0x6E>	0
<0x6F>	0
<0x70>	0
<0x71>	0
<0x72>	0
<0x73>	0
<0x74>	0
<0x75>	0
<0x76>	0
<0x77>	0
<0x78>	0
<0x79>	0
<0x7A>	0
<0x7B>	0
<0x7C>	0
<0x7D>	0
<0x7E>	0
<0x7F>	0
<0x80>	0
<0x81>	0
<0x82>	0
<0x83>	0
<0x84>	0
<0x85>	0
<0x86>	0
<0x87>	0
<0x88>	0
<0x89>	0
<0x8A>	0
<0x8B>	0
<0x8C>	0
<0x8D>	0
<0x8E>	0
<0x8F>	0
<0x90>	0
<0x91>	0
<0x92>	0
<0x93>	0
<0x94>	0
<0x95>	0
<0x96>	0
<0x97>	0
<0x98>	0
<0x99>	0
<0x9A>	0
<0x9B>	0
<0x9C>	0
<0x9D>	0
<0x9E>	0
<0x9F>	0
<0xA0>	0
<0xA1>	0
<0xA2>	0
<0xA3>	0
<0xA4>	0
<0xA5>	0
<0xA6>	0
<0xA7>	0
<0xA8>	0
<0xA9>	0
<0xAA>	0
<0xAB>	0
<0xAC>	0
<0xAD>	0
<0xAE>	0
<0xAF>	0
<0xB0>	0
<0xB1>	0
<0xB2>	0
<0xB3>	0
<0xB4>	0
<0xB5>	0
<0xB6>	0
<0xB7>	0
<0xB8>	0
<0xB9>	0
<0xBA>	0
<0xBB>	0
<0xBC>	0
<0xBD>	0
<0xBE>	0
<0xBF>	0
<0xC0>	0
<0xC1>	0
<0xC2>	0
<0xC3>	0
<0xC4>	0
<0xC5>	0
<0xC6>	0
<0xC7>	0
<0xC8>	0
<0xC9>	0
<0xCA>	0
<0xCB>	0
<0xCC>	0
<0xCD>	0
<0xCE>	0
<0xCF>	0
<0xD0>	0
<0xD1>	0
<0xD2>	0
<0xD3>	0
<0xD4>	0
<0xD5>	0
<0xD6>	0
<0xD7>	0
<0xD8>	0
<0xD9>	0
<0xDA>	0
<0xDB>	0
<0xDC>	0
<0xDD>	0
<0xDE>	0
<0xDF>	0
<0xE0>	0
<0xE1>	0
<0xE2>	0
<0xE3>	0
<0xE4>	0
<0xE5>	0
<0xE6>	0
<0xE7>	0
<0xE8>	0
<0xE9>	0
<0xEA>	0
<0xEB>	0
<0xEC>	0
<0xED>	0
<0xEE>	0
<0xEF>	0
<0xF0>	0
<0xF1>	0
<0xF2>	0
<0xF3>	0
<0xF4>	0
<0xF5>	0
<0xF6>	0
<0xF7>	0
<0xF8>	0
<0xF9>	0
<0xFA>	0
<0xFB>	0
<0xFC>	0
<0xFD>	0
<0xFE>	0
<0xFF>	0
▁t	-0
▁a	-1
he	-2
in	-3
re	-4
▁the	-5
▁o	-6
er	-7
▁s	-8
at	-9
on	-10
▁c	-11
en	-12
es	-13
▁w	-14
nd	-15
is	-16
or	-17
it	-18
▁p	-19
al	-20
▁b	-21
▁f	-22
ed	-23
ing	-24
an	-25
▁of	-26
ou	-27
ar	-28
▁in	-29
▁m	-30
▁to	-31
▁and	-32
ic	-33
▁d	-34
ion	-35
le	-36
ro	-37
as	-38
▁h	-39
ent	-40
▁th	-41
il	-42
ct	-43
▁T	-44
▁e	-45
ve	-46
▁re	-47
▁l	-48
om	-49
▁n	-50
st	-51
▁is	-52
▁be	-53
ly	-54
▁g	-55
se	-56
ol	-57
▁A	-58
id	-59
et	-60
ation	-61
im	-62
▁S	-63
ow	-64
ut	-65
ur	-66
ch	-67
ce	-68
ra	-69
ot	-70
▁for	-71
▁y	-72
▁I	-73
▁u	-74
ig	-75
▁C	-76
▁st	-77
▁on	-78
▁that	-79
▁The	-80
ver	-81
ir	-82
ay	-83
ul	-84
am	-85
▁are	-86
▁you	-87
ith	-88
el	-89
her	-90
▁as	-91
▁pro	-92
ad	-93
▁an	-94
▁M	-95
▁or	-96
▁with	-97
▁con	-98
▁P	-99
if	-100
▁wh	-101
od	-102
▁it	-103
ter	-104
▁al	-105
th	-106
ge	-107
▁W	-108
op	-109
ill	-110
ts	-111
▁B	-112
ment	-113
ers	-114
ate	-115
▁he	-116
▁1	-117
ies	-118
ore	-119
▁H	-120
ab	-121
▁de	-122
▁ex	-123
▁(	-124
ect	-125
▁D	-126
▁ha	-127
▁su	-128
ess	-129
▁com	-130
▁we	-131
ke	-132
rom	-133
▁-	-134
ac	-135
us	-136
ive	-137
um	-138
ity	-139
est	-140
res	-141
ld	-142
▁can	-143
▁F	-144
▁E	-145
ist	-146
▁v	-147
os	-148
ud	-149
igh	-150
▁at	-151
▁by	-152
qu	-153
▁ch	-154
em	-155
iv	-156
▁from	-157
ain	-158
▁R	-159
▁ne	-160
pp	-161
▁N	-162
nt	-163
▁r	-164
and	-165
ci	-166
▁se	-167
▁L	-168
▁le	-169
▁was	-170
un	-171
▁2	-172
▁have	-173
▁G	-174
ure	-175
▁sp	-176
ant	-177
ort	-178
ical	-179
og	-180
▁sh	-181
ri	-182
art	-183
▁ab	-184
▁en	-185
▁not	-186
rou	-187
▁this	-188
▁wor	-189
all	-190
▁O	-191
our	-192
out	-193
▁us	-194
ost	-195
▁In	-196
ome	-197
ear	-198
gh	-199
▁your	-200
▁pl	-201
du	-202
ions	-203
ich	-204
red	-205
ap	-206
ide	-207
ight	-208
▁U	-209
ine	-210
▁im	-211
ould	-212
00	-213
ag	-214
ell	-215
▁their	-216
ated	-217
oc	-218
ther	-219
ard	-220
▁Th	-221
act	-222
▁k	-223
ff	-224
ast	-225
age	-226
▁int	-227
ood	-228
▁will	-229
pl	-230
so	-231
ak	-232
ild	-233
▁whe	-234
ren	-235
▁they	-236
▁more	-237
ally	-238
per	-239
ust	-240
▁inc	-241
▁which	-242
vel	-243
▁ad	-244
▁dis	-245
pt	-246
ans	-247
▁all	-248
▁cont	-249
ater	-250
ru	-251
ous	-252
▁te	-253
▁has	-254
▁comp	-255
ong	-256
▁so	-257
▁J	-258
ia	-259
ew	-260
cc	-261
▁res	-262
orm	-263
iz	-264
▁do	-265
ib	-266
ok	-267
▁cl	-268
end	-269
ary	-270
ents	-271
ations	-272
ind	-273
ake	-274
▁stud	-275
▁other	-276
able	-277
reat	-278
ip	-279
ach	-280
ase	-281
▁man	-282
▁but	-283
ep	-284
▁“	-285
ence	-286
▁per	-287
▁about	-288
▁one	-289
ry	-290
▁me	-291
▁also	-292
ec	-293
▁"	-294
ial	-295
ass	-296
▁St	-297
are	-298
▁imp	-299
ult	-300
ks	-301
ose	-302
▁out	-303
▁j	-304
▁This	-305
very	-306
au	-307
ace	-308
ign	-309
av	-310
▁inf	-311
▁ar	-312
ice	-313
one	-314
ound	-315
ance	-316
ook	-317
ord	-318
ite	-319
ction	-320
fe	-321
ber	-322
ory	-323
▁tim	-324
▁It	-325
▁were	-326
ition	-327
ish	-328
ike	-329
ack	-330
ens	-331
ame	-332
ress	-333
▁un	-334
▁pe	-335
▁ev	-336
ors	-337
now	-338
▁year	-339
ub	-340
olog	-341
low	-342
▁who	-343
▁up	-344
▁them	-345
▁di	-346
ang	-347
▁may	-348
ces	-349
▁app	-350
▁than	-351
mer	-352
ue	-353
▁sy	-354
ree	-355
▁qu	-356
▁pre	-357
vers	-358
ount	-359
ays	-360
▁Ch	-361
ric	-362
▁Y	-363
▁part	-364
▁when	-365
ile	-366
▁sa	-367
▁K	-368
▁some	-369
▁child	-370
▁19	-371
▁bec	-372
▁comm	-373
ail	-374
alth	-375
ople	-376
ings	-377
ph	-378
▁how	-379
▁col	-380
▁rec	-381
ates	-382
▁V	-383
pe	-384
▁into	-385
▁use	-386
▁ro	-387
▁work	-388
ie	-389
rough	-390
lud	-391
erv	-392
▁bl	-393
▁hel	-394
▁our	-395
▁over	-396
▁new	-397
nder	-398
ove	-399
▁been	-400
ough	-401
ms	-402
▁like	-403
ning	-404
row	-405
ons	-406
▁tra	-407
▁3	-408
▁help	-409
te	-410
▁time	-411
▁go	-412
▁people	-413
▁20	-414
▁dif	-415
rit	-416
ause	-417
▁these	-418
▁know	-419
als	-420
les	-421
velop	-422
irst	-423
ject	-424
▁ag	-425
ll	-426
▁act	-427
▁most	-428
▁ra	-429
ool	-430
▁there	-431
▁its	-432
tern	-433
ys	-434
ian	-435
lect	-436
▁bet	-437
..	-438
▁Un	-439
▁his	-440
▁need	-441
ond	-442
rent	-443
we	-444
▁includ	-445
▁He	-446
▁used	-447
▁tw	-448
▁Wh	-449
ple	-450
▁ph	-451
▁des	-452
▁cons	-453
▁under	-454
ational	-455
ities	-456
round	-457
ob	-458
).	-459
▁acc	-460
▁develop	-461
ffect	-462
lic	-463
ific	-464
▁if	-465
ating	-466
hed	-467
ments	-468
▁through	-469
▁such	-470
stem	-471
▁first	-472
▁produ	-473
▁what	-474
▁would	-475
ics	-476
▁many	-477
ire	-478
▁prov	-479
▁sc	-480
ular	-481
ink	-482
▁any	-483
uc	-484
▁gen	-485
▁fe	-486
ative	-487
uring	-488
eth	-489
▁rese	-490
▁sur	-491
▁health	-492
ath	-493
iss	-494
cial	-495
▁off	-496
ual	-497
▁only	-498
ble	-499
▁am	-500
▁rep	-501
▁po	-502
int	-503
▁tr	-504
ise	-505
▁add	-506
▁had	-507
▁water	-508
▁fl	-509
▁rel	-510
ced	-511
arch	-512
▁two	-513
ten	-514
ark	-515
ov	-516
ious	-517
oth	-518
▁diffe	-519
ne	-520
ram	-521
oss	-522
cess	-523
fter	-524
▁As	-525
▁pr	-526
ife	-527
hen	-528
▁exp	-529
ful	-530
ange	-531
▁sm	-532
▁years	-533
▁make	-534
erm	-535
▁lear	-536
▁get	-537
▁no	-538
▁ac	-539
chool	-540
▁reg	-541
ures	-542
ased	-543
ng	-544
▁ind	-545
own	-546
▁co	-547
▁well	-548
▁ob	-549
ower	-550
▁system	-551
▁dec	-552
ible	-553
rib	-554
▁4	-555
old	-556
▁201	-557
▁If	-558
▁could	-559
chn	-560
xt	-561
▁said	-562
hes	-563
▁em	-564
ivers	-565
ormation	-566
▁children	-567
land	-568
▁found	-569
ility	-570
),	-571
wn	-572
cer	-573
▁should	-574
ology	-575
ting	-576
▁bu	-577
ists	-578
erg	-579
▁rem	-580
vent	-581
ade	-582
ween	-583
▁pres	-584
ick	-585
ract	-586
▁plan	-587
meric	-588
▁5	-589
ily	-590
▁supp	-591
▁We	-592
its	-593
▁spec	-594
▁–	-595
▁high	-596
▁car	-597
fore	-598
uch	-599
▁between	-600
hers	-601
▁Pro	-602
▁ear	-603
cy	-604
tain	-605
ines	-606
gan	-607
▁med	-608
▁where	-609
ict	-610
ck	-611
▁Re	-612
ited	-613
ually	-614
▁ed	-615
▁import	-616
▁Americ	-617
▁long	-618
▁students	-619
▁num	-620
▁sub	-621
▁|	-622
▁att	-623
ident	-624
▁pers	-625
ural	-626
ution	-627
ins	-628
▁An	-629
▁lar	-630
ied	-631
ron	-632
▁Al	-633
▁see	-634
sel	-635
▁exper	-636
get	-637
▁her	-638
▁form	-639
▁exam	-640
▁ty	-641
aking	-642
▁different	-643
▁just	-644
▁200	-645
▁food	-646
▁call	-647
▁information	-648
▁sk	-649
▁world	-650
iew	-651
▁cent	-652
ds	-653
▁For	-654
▁way	-655
▁sim	-656
ives	-657
▁How	-658
▁study	-659
▁inv	-660
▁very	-661
▁every	-662
aw	-663
▁gra	-664
▁prog	-665
iron	-666
▁They	-667
ature	-668
▁mod	-669
▁read	-670
ft	-671
▁effect	-672
▁art	-673
▁det	-674
▁incre	-675
▁sci	-676
▁inter	-677
▁even	-678
urn	-679
▁find	-680
arm	-681
ody	-682
▁because	-683
▁inst	-684
▁che	-685
▁You	-686
▁techn	-687
ps	-688
▁Com	-689
▁ke	-690
ever	-691
▁cre	-692
▁disc	-693
▁each	-694
▁after	-695
▁spe	-696
ety	-697
ases	-698
cent	-699
▁then	-700
▁hum	-701
▁pat	-702
▁during	-703
▁look	-704
▁pub	-705
▁pol	-706
▁trans	-707
▁ext	-708
▁count	-709
▁those	-710
▁loc	-711
▁much	-712
ages	-713
▁fol	-714
ues	-715
tle	-716
▁grow	-717
ically	-718
▁var	-719
iversity	-720
▁mon	-721
▁18	-722
▁fam	-723
oy	-724
▁important	-725
▁she	-726
▁sign	-727
▁dise	-728
▁proble	-729
▁life	-730
▁using	-731
ergy	-732
▁resp	-733
ork	-734
ars	-735
▁school	-736
gg	-737
ef	-738
other	-739
▁show	-740
viron	-741
▁partic	-742
ted	-743
ata	-744
ruct	-745
▁set	-746
▁back	-747
ros	-748
orn	-749
▁gener	-750
▁expl	-751
▁level	-752
▁dist	-753
▁Ar	-754
▁There	-755
▁research	-756
▁small	-757
▁my	-758
▁treat	-759
▁cell	-760
ection	-761
▁av	-762
▁own	-763
day	-764
▁being	-765
▁day	-766
▁6	-767
▁ass	-768
▁less	-769
▁ins	-770
▁commun	-771
▁gl	-772
▁person	-773
▁min	-774
▁body	-775
▁cur	-776
akes	-777
ize	-778
▁lead	-779
▁fact	-780
form	-781
▁follow	-782
led	-783
▁Con	-784
▁sec	-785
▁made	-786
ere	-787
▁sol	-788
▁vis	-789
▁New	-790
▁What	-791
▁process	-792
vironment	-793
▁pop	-794
omen	-795
ty	-796
▁around	-797
ness	-798
▁often	-799
000	-800
ices	-801
▁fun	-802
stand	-803
▁good	-804
▁same	-805
▁activ	-806
▁requ	-807
▁comple	-808
▁design	-809
ather	-810
ient	-811
ids	-812
▁does	-813
.”	-814
ward	-815
▁dep	-816
ale	-817
▁provid	-818
io	-819
▁ent	-820
▁down	-821
▁But	-822
▁hist	-823
ished	-824
▁class	-825
▁ca	-826
any	-827
▁aut	-828
cept	-829
▁before	-830
▁prot	-831
▁end	-832
rect	-833
▁ris	-834
▁take	-835
▁University	-836
▁To	-837
rain	-838
▁str	-839
▁common	-840
con	-841
oun	-842
▁br	-843
▁ref	-844
ved	-845
▁now	-846
read	-847
ex	-848
iqu	-849
ury	-850
und	-851
▁grou	-852
inal	-853
▁while	-854
ax	-855
▁both	-856
ized	-857
iving	-858
▁Sp	-859
imate	-860
▁main	-861
ants	-862
ock	-863
▁def	-864
ism	-865
▁When	-866
▁learn	-867
ute	-868
ince	-869
▁occ	-870
▁care	-871
▁10	-872
dition	-873
▁So	-874
▁par	-875
ral	-876
▁lit	-877
...	-878
ix	-879
iel	-880
▁educ	-881
▁elect	-882
▁Se	-883
hip	-884
▁number	-885
▁book	-886
▁redu	-887
der	-888
ivid	-889
▁Res	-890
▁called	-891
ters	-892
▁state	-893
com	-894
rop	-895
▁hand	-896
ier	-897
▁mem	-898
▁poss	-899
aterial	-900
ults	-901
arc	-902
▁disease	-903
rol	-904
▁bel	-905
▁dr	-906
▁These	-907
▁three	-908
▁power	-909
ave	-910
▁test	-911
up	-912
▁cle	-913
vern	-914
gen	-915
ger	-916
ets	-917
▁eas	-918
ality	-919
▁energy	-920
▁Ind	-921
▁7	-922
▁data	-923
▁On	-924
ull	-925
▁serv	-926
▁build	-927
▁bo	-928
illion	-929
▁som	-930
▁including	-931
reen	-932
air	-933
▁large	-934
ulation	-935
ources	-936
▁great	-937
raph	-938
▁cap	-939
,000	-940
acter	-941
ven	-942
ouse	-943
ital	-944
▁organ	-945
The	-946
▁tem	-947
▁And	-948
iver	-949
▁known	-950
▁anim	-951
cl	-952
ains	-953
▁land	-954
▁environment	-955
."	-956
alk	-957
▁start	-958
oms	-959
way	-960
▁ser	-961
bs	-962
▁understand	-963
▁allow	-964
▁again	-965
ien	-966
▁char	-967
▁material	-968
▁human	-969
▁quest	-970
▁op	-971
outh	-972
ves	-973
oh	-974
▁8	-975
,”	-976
▁contin	-977
ined	-978
▁Ph	-979
▁cour	-980
▁blood	-981
,"	-982
▁think	-983
line	-984
▁project	-985
▁Ad	-986
▁val	-987
ross	-988
ving	-989
▁gu	-990
▁writ	-991
▁must	-992
▁area	-993
itions	-994
▁Ex	-995
▁met	-996
aj	-997
▁caus	-998
ared	-999
▁support	-1000
ording	-1001
▁light	-1002
iod	-1003
▁program	-1004
uss	-1005
▁home	-1006
ights	-1007
▁example	-1008
ering	-1009
ource	-1010
ills	-1011
▁beh	-1012
▁species	-1013
ats	-1014
ional	-1015
▁ve	-1016
ash	-1017
me	-1018
▁Eng	-1019
▁est	-1020
▁play	-1021
▁At	-1022
▁Pl	-1023
▁few	-1024
▁though	-1025
▁ide	-1026
mon	-1027
rence	-1028
▁still	-1029
▁place	-1030
▁women	-1031
▁include	-1032
de	-1033
▁scient	-1034
▁present	-1035
▁De	-1036
▁bre	-1037
ected	-1038
▁mat	-1039
▁equ	-1040
▁mus	-1041
▁percent	-1042
▁phys	-1043
erest	-1044
lish	-1045
▁product	-1046
▁typ	-1047
▁Is	-1048
▁American	-1049
▁chang	-1050
agn	-1051
▁did	-1052
▁don	-1053
▁sym	-1054
eng	-1055
▁want	-1056
ah	-1057
▁adv	-1058
▁9	-1059
▁Sci	-1060
bers	-1061
orts	-1062
▁pract	-1063
▁learning	-1064
||	-1065
▁change	-1066
▁‘	-1067
angu	-1068
▁development	-1069
gin	-1070
▁const	-1071
▁Col	-1072
soci	-1073
▁sit	-1074
▁ident	-1075
▁cause	-1076
▁(1	-1077
▁impro	-1078
use	-1079
▁risk	-1080
ffic	-1081
orth	-1082
ium	-1083
▁Can	-1084
lished	-1085
▁might	-1086
▁stand	-1087
itive	-1088
▁bas	-1089
▁public	-1090
ired	-1091
iven	-1092
rodu	-1093
▁right	-1094
▁wee	-1095
▁old	-1096
▁pain	-1097
ries	-1098
▁iss	-1099
els	-1100
ental	-1101
▁Te	-1102
atural	-1103
ert	-1104
ason	-1105
view	-1106
ograph	-1107
▁tre	-1108
aren	-1109
▁cor	-1110
ense	-1111
▁says	-1112
▁keep	-1113
▁conf	-1114
▁top	-1115
▁report	-1116
osed	-1117
▁sl	-1118
▁air	-1119
▁near	-1120
▁mil	-1121
▁appro	-1122
self	-1123
▁early	-1124
▁better	-1125
▁low	-1126
▁hy	-1127
ential	-1128
▁belie	-1129
▁without	-1130
▁En	-1131
▁researc	-1132
▁interest	-1133
ify	-1134
▁ben	-1135
ran	-1136
▁pot	-1137
▁ant	-1138
▁govern	-1139
ton	-1140
▁prof	-1141
ration	-1142
ior	-1143
ination	-1144
ethod	-1145
▁cancer	-1146
▁another	-1147
▁individ	-1148
▁Cl	-1149
▁National	-1150
▁occur	-1151
pr	-1152
the	-1153
▁pur	-1154
cing	-1155
▁result	-1156
▁cal	-1157
-1	-1158
▁become	-1159
icle	-1160
▁here	-1161
▁within	-1162
▁history	-1163
▁imm	-1164
▁family	-1165
▁Be	-1166
▁move	-1167
ailable	-1168
ways	-1169
gs	-1170
▁Sh	-1171
▁provide	-1172
20	-1173
▁vari	-1174
▁means	-1175
ator	-1176
ption	-1177
ajor	-1178
ik	-1179
▁last	-1180
▁plant	-1181
▁However	-1182
▁direct	-1183
ime	-1184
▁best	-1185
▁him	-1186
ots	-1187
▁proper	-1188
▁prevent	-1189
▁pass	-1190
▁Cent	-1191
▁sever	-1192
▁eng	-1193
▁second	-1194
▁Q	-1195
crib	-1196
eral	-1197
▁Med	-1198
▁able	-1199
ently	-1200
▁meas	-1201
ological	-1202
ients	-1203
▁bir	-1204
▁cells	-1205
ining	-1206
ission	-1207
▁treatment	-1208
▁Ear	-1209
▁point	-1210
ner	-1211
▁group	-1212
▁comput	-1213
ards	-1214
here	-1215
▁United	-1216
ield	-1217
less	-1218
▁happ	-1219
▁&	-1220
erc	-1221
atic	-1222
▁ret	-1223
▁rest	-1224
az	-1225
▁unt	-1226
uro	-1227
▁sw	-1228
▁areas	-1229
ered	-1230
ience	-1231
▁too	-1232
oid	-1233
▁ele	-1234
▁affect	-1235
▁problems	-1236
ests	-1237
hor	-1238
ertain	-1239
ified	-1240
osp	-1241
▁age	-1242
ote	-1243
▁available	-1244
▁—	-1245
man	-1246
▁four	-1247
▁orig	-1248
conom	-1249
▁open	-1250
ived	-1251
anguage	-1252
iness	-1253
ories	-1254
▁cult	-1255
▁month	-1256
▁possible	-1257
par	-1258
0.	-1259
▁major	-1260
rap	-1261
ides	-1262
▁All	-1263
▁several	-1264
▁method	-1265
to	-1266
▁times	-1267
ope	-1268
▁Le	-1269
ision	-1270
cle	-1271
▁fore	-1272
▁million	-1273
▁say	-1274
▁addition	-1275
imes	-1276
▁young	-1277
▁One	-1278
▁things	-1279
▁Dr	-1280
▁order	-1281
ames	-1282
▁mean	-1283
▁perform	-1284
▁es	-1285
▁flow	-1286
▁current	-1287
▁teac	-1288
▁15	-1289
amp	-1290
une	-1291
ocus	-1292
▁diff	-1293
▁hig	-1294
▁post	-1295
▁dev	-1296
▁gr	-1297
▁type	-1298
▁access	-1299
▁social	-1300
▁following	-1301
▁researchers	-1302
▁object	-1303
▁plants	-1304
ina	-1305
▁period	-1306
▁words	-1307
▁anal	-1308
▁mar	-1309
▁heart	-1310
▁temper	-1311
▁name	-1312
▁since	-1313
ccess	-1314
lease	-1315
ider	-1316
▁ey	-1317
▁chem	-1318
▁non	-1319
aper	-1320
▁brain	-1321
▁space	-1322
▁States	-1323
▁free	-1324
▁war	-1325
▁control	-1326
▁pos	-1327
▁ter	-1328
▁today	-1329
ples	-1330
▁opp	-1331
▁mark	-1332
▁run	-1333
▁bi	-1334
▁technology	-1335
▁creat	-1336
▁benef	-1337
.,	-1338
▁head	-1339
▁let	-1340
▁feel	-1341
▁Wor	-1342
ised	-1343
ability	-1344
▁list	-1345
▁cond	-1346
▁invol	-1347
▁particular	-1348
lu	-1349
▁problem	-1350
▁'	-1351
▁Some	-1352
ization	-1353
abor	-1354
▁levels	-1355
▁With	-1356
ething	-1357
▁Z	-1358
▁By	-1359
work	-1360
▁real	-1361
▁Health	-1362
sp	-1363
ians	-1364
▁fre	-1365
ones	-1366
cially	-1367
▁little	-1368
▁natural	-1369
ern	-1370
▁sugg	-1371
ring	-1372
▁usually	-1373
▁mo	-1374
▁199	-1375
▁cost	-1376
stit	-1377
▁based	-1378
▁until	-1379
▁making	-1380
▁rad	-1381
▁likely	-1382
▁indu	-1383
atory	-1384
▁along	-1385
▁others	-1386
ank	-1387
▁lim	-1388
ended	-1389
ends	-1390
▁men	-1391
▁mult	-1392
▁focus	-1393
▁contain	-1394
▁create	-1395
▁education	-1396
atch	-1397
▁fin	-1398
▁press	-1399
▁short	-1400
▁12	-1401
rist	-1402
etic	-1403
▁oper	-1404
▁econom	-1405
▁view	-1406
idence	-1407
▁prom	-1408
▁medic	-1409
aves	-1410
▁hard	-1411
▁rece	-1412
ww	-1413
▁against	-1414
▁put	-1415
▁fac	-1416
uture	-1417
be	-1418
ogn	-1419
▁Sc	-1420
▁team	-1421
▁certain	-1422
▁Or	-1423
▁mot	-1424
▁government	-1425
sw	-1426
▁US	-1427
ateg	-1428
▁something	-1429
▁among	-1430
ptoms	-1431
▁works	-1432
▁$	-1433
▁phot	-1434
▁impact	-1435
▁country	-1436
▁come	-1437
▁local	-1438
ape	-1439
ox	-1440
tt	-1441
▁del	-1442
▁bus	-1443
▁law	-1444
ug	-1445
▁Resear	-1446
▁results	-1447
▁special	-1448
ours	-1449
▁record	-1450
ling	-1451
▁turn	-1452
br	-1453
▁fil	-1454
▁why	-1455
face	-1456
▁el	-1457
▁struct	-1458
ctor	-1459
aken	-1460
urope	-1461
▁dra	-1462
ately	-1463
oad	-1464
▁function	-1465
ember	-1466
▁ill	-1467
▁tri	-1468
mit	-1469
▁Stud	-1470
though	-1471
▁Sy	-1472
ruction	-1473
hem	-1474
ored	-1475
▁cho	-1476
▁conn	-1477
▁Im	-1478
▁course	-1479
ably	-1480
ilar	-1481
ators	-1482
icult	-1483
▁begin	-1484
▁next	-1485
aster	-1486
▁far	-1487
alf	-1488
over	-1489
olution	-1490
▁Bl	-1491
▁signific	-1492
▁colle	-1493
▁death	-1494
hern	-1495
ware	-1496
▁days	-1497
▁comb	-1498
ormal	-1499
▁Earth	-1500
idd	-1501
▁language	-1502
▁profess	-1503
▁17	-1504
omm	-1505
▁determ	-1506
ret	-1507
ortun	-1508
▁always	-1509
▁site	-1510
▁above	-1511
▁Europe	-1512
▁cr	-1513
▁sing	-1514
arents	-1515
elf	-1516
▁cir	-1517
▁tool	-1518
gether	-1519
▁together	-1520
aps	-1521
▁bro	-1522
▁try	-1523
▁give	-1524
▁due	-1525
aring	-1526
▁increase	-1527
▁sun	-1528
▁text	-1529
▁science	-1530
sc	-1531
ique	-1532
▁protect	-1533
ention	-1534
▁future	-1535
▁English	-1536
ured	-1537
aching	-1538
obal	-1539
▁ess	-1540
▁consum	-1541
▁Ge	-1542
vious	-1543
▁complete	-1544
ead	-1545
▁conditions	-1546
▁dam	-1547
▁past	-1548
ems	-1549
▁Ne	-1550
▁behav	-1551
▁needs	-1552
▁leg	-1553
port	-1554
▁effective	-1555
ode	-1556
aces	-1557
utes	-1558
ither	-1559
▁associ	-1560
▁given	-1561
▁side	-1562
▁step	-1563
▁repres	-1564
overed	-1565
urther	-1566
atures	-1567
▁intern	-1568
ables	-1569
▁World	-1570
▁skills	-1571
sy	-1572
▁changes	-1573
▁enough	-1574
▁activities	-1575
▁word	-1576
▁big	-1577
▁activity	-1578
ned	-1579
▁ask	-1580
▁week	-1581
▁appear	-1582
▁vol	-1583
▁century	-1584
por	-1585
iting	-1586
▁case	-1587
▁later	-1588
▁Cal	-1589
▁mov	-1590
▁fish	-1591
▁indust	-1592
▁Brit	-1593
of	-1594
▁invest	-1595
▁community	-1596
▁Af	-1597
▁gre	-1598
▁vir	-1599
▁below	-1600
▁ground	-1601
omet	-1602
▁working	-1603
▁live	-1604
pecially	-1605
af	-1606
▁Do	-1607
ances	-1608
▁away	-1609
▁=	-1610
▁While	-1611
▁success	-1612
▁symptoms	-1613
▁obs	-1614
▁population	-1615
oot	-1616
▁er	-1617
ences	-1618
▁ways	-1619
▁amount	-1620
▁studies	-1621
▁questions	-1622
ending	-1623
▁types	-1624
▁Intern	-1625
▁kind	-1626
▁improve	-1627
▁patients	-1628
▁experience	-1629
ilt	-1630
ray	-1631
▁clear	-1632
▁skin	-1633
▁dru	-1634
▁enc	-1635
▁resources	-1636
put	-1637
omes	-1638
▁full	-1639
▁sure	-1640
SA	-1641
▁[	-1642
▁Christ	-1643
▁higher	-1644
ledge	-1645
▁across	-1646
aut	-1647
▁cut	-1648
▁developed	-1649
▁difficult	-1650
ipp	-1651
▁animals	-1652
▁healthy	-1653
ires	-1654
▁author	-1655
▁least	-1656
pos	-1657
ler	-1658
amin	-1659
hy	-1660
most	-1661
ips	-1662
▁That	-1663
▁Go	-1664
▁She	-1665
▁vide	-1666
▁War	-1667
asing	-1668
▁carb	-1669
▁reduce	-1670
▁specific	-1671
app	-1672
▁discuss	-1673
▁medical	-1674
▁16	-1675
▁makes	-1676
agement	-1677
▁significant	-1678
▁red	-1679
▁After	-1680
isc	-1681
let	-1682
▁sal	-1683
▁published	-1684
plic	-1685
▁according	-1686
▁article	-1687
eg	-1688
ression	-1689
edi	-1690
▁Ab	-1691
▁net	-1692
▁story	-1693
▁systems	-1694
▁similar	-1695
ley	-1696
▁11	-1697
ument	-1698
▁going	-1699
▁kids	-1700
itor	-1701
▁color	-1702
osis	-1703
▁nut	-1704
ploy	-1705
▁wr	-1706
eds	-1707
not	-1708
nal	-1709
▁cy	-1710
▁range	-1711
▁fat	-1712
▁cases	-1713
▁Science	-1714
▁scientists	-1715
ery	-1716
▁1.	-1717
▁source	-1718
▁strong	-1719
▁America	-1720
cul	-1721
▁flu	-1722
▁white	-1723
ference	-1724
ervation	-1725
▁computer	-1726
▁Fl	-1727
oint	-1728
thing	-1729
▁North	-1730
▁lower	-1731
ches	-1732
▁sum	-1733
▁character	-1734
▁materials	-1735
▁et	-1736
▁God	-1737
▁May	-1738
▁page	-1739
▁products	-1740
▁dig	-1741
▁lot	-1742
▁describ	-1743
▁respons	-1744
amm	-1745
ged	-1746
pect	-1747
▁paper	-1748
▁especially	-1749
ges	-1750
▁Car	-1751
acy	-1752
hing	-1753
▁answ	-1754
▁black	-1755
ae	-1756
ont	-1757
▁sens	-1758
▁growth	-1759
▁surface	-1760
▁30	-1761
▁Comm	-1762
▁exerc	-1763
▁loss	-1764
min	-1765
▁mic	-1766
▁line	-1767
▁house	-1768
▁physical	-1769
▁chemical	-1770
▁sound	-1771
▁ann	-1772
▁key	-1773
▁various	-1774
▁simple	-1775
▁necess	-1776
▁student	-1777
acc	-1778
ilities	-1779
rams	-1780
lying	-1781
duct	-1782
▁dog	-1783
▁rate	-1784
▁subject	-1785
ott	-1786
▁hab	-1787
ils	-1788
▁five	-1789
▁effects	-1790
▁.	-1791
▁fall	-1792
▁term	-1793
▁Mar	-1794
▁Afric	-1795
▁detail	-1796
ival	-1797
▁Aust	-1798
▁left	-1799
▁parents	-1800
▁arch	-1801
▁crit	-1802
by	-1803
▁Gu	-1804
▁Joh	-1805
▁having	-1806
▁diet	-1807
ream	-1808
istic	-1809
▁applic	-1810
▁really	-1811
opy	-1812
▁--	-1813
oney	-1814
▁prim	-1815
▁taken	-1816
▁opt	-1817
▁weight	-1818
▁indic	-1819
▁require	-1820
▁provides	-1821
▁Most	-1822
verage	-1823
▁close	-1824
▁countries	-1825
▁once	-1826
▁created	-1827
▁introdu	-1828
ibr	-1829
ciety	-1830
▁size	-1831
▁Gen	-1832
▁gas	-1833
ison	-1834
▁prob	-1835
▁green	-1836
▁Dep	-1837
unt	-1838
▁half	-1839
▁Pre	-1840
▁deg	-1841
selves	-1842
▁never	-1843
▁z	-1844
gest	-1845
▁wind	-1846
▁climate	-1847
▁quality	-1848
▁mass	-1849
▁exist	-1850
▁Cont	-1851
▁building	-1852
▁ge	-1853
▁seen	-1854
ands	-1855
augh	-1856
ially	-1857
ump	-1858
▁ast	-1859
▁School	-1860
▁online	-1861
▁particip	-1862
▁however	-1863
50	-1864
▁single	-1865
▁wild	-1866
lement	-1867
▁individual	-1868
chie	-1869
▁recomm	-1870
urs	-1871
▁done	-1872
▁issues	-1873
NA	-1874
▁whether	-1875
▁condition	-1876
▁knowledge	-1877
ints	-1878
ready	-1879
fficient	-1880
▁Your	-1881
▁Co	-1882
rown	-1883
▁living	-1884
ane	-1885
cri	-1886
ency	-1887
▁polit	-1888
ising	-1889
▁Many	-1890
ites	-1891
▁tru	-1892
iction	-1893
org	-1894
▁wide	-1895
artment	-1896
fer	-1897
▁14	-1898
side	-1899
▁sent	-1900
ournal	-1901
▁chall	-1902
▁suggest	-1903
▁Am	-1904
▁Acc	-1905
roll	-1906
▁link	-1907
▁pred	-1908
enn	-1909
▁ce	-1910
▁event	-1911
oura	-1912
ribut	-1913
▁situ	-1914
icles	-1915
▁Research	-1916
▁question	-1917
▁bab	-1918
▁general	-1919
ule	-1920
▁eat	-1921
▁tell	-1922
▁further	-1923
mber	-1924
▁Here	-1925
▁concer	-1926
ee	-1927
▁John	-1928
▁represent	-1929
ma	-1930
▁bat	-1931
▁estab	-1932
▁South	-1933
▁More	-1934
for	-1935
ales	-1936
▁frequ	-1937
▁parts	-1938
ird	-1939
▁ens	-1940
▁reason	-1941
▁famil	-1942
▁win	-1943
rel	-1944
▁Canad	-1945
▁eff	-1946
▁comes	-1947
▁ability	-1948
hib	-1949
▁role	-1950
▁field	-1951
▁either	-1952
▁already	-1953
oll	-1954
▁taking	-1955
▁communic	-1956
▁became	-1957
▁heat	-1958
▁designed	-1959
▁easy	-1960
▁visit	-1961
2.	-1962
▁lab	-1963
▁Lear	-1964
▁pict	-1965
▁actually	-1966
▁Man	-1967
ections	-1968
▁temperature	-1969
//	-1970
▁production	-1971
▁coll	-1972
▁State	-1973
▁influ	-1974
▁Instit	-1975
1.	-1976
erve	-1977
leep	-1978
▁foods	-1979
▁global	-1980
uck	-1981
▁la	-1982
fact	-1983
▁months	-1984
▁circ	-1985
▁fund	-1986
ening	-1987
▁shows	-1988
▁increased	-1989
aged	-1990
ysis	-1991
▁Hist	-1992
▁idea	-1993
▁business	-1994
▁mind	-1995
like	-1996
▁quick	-1997
▁address	-1998
▁includes	-1999
▁pressure	-2000
ried	-2001
▁Child	-2002
▁poll	-2003
▁soft	-2004
▁Pr	-2005
oles	-2006
▁hold	-2007
▁needed	-2008
▁reading	-2009
aim	-2010
▁Tr	-2011
▁produce	-2012
illed	-2013
▁recogn	-2014
▁•	-2015
▁Pe	-2016
▁13	-2017
▁ur	-2018
abet	-2019
▁Act	-2020
▁rele	-2021
▁tradition	-2022
gar	-2023
ued	-2024
ublic	-2025
▁webs	-2026
▁lives	-2027
ibility	-2028
▁normal	-2029
ER	-2030
▁rights	-2031
▁national	-2032
▁doc	-2033
▁surv	-2034
▁talk	-2035
▁whole	-2036
▁remain	-2037
▁consider	-2038
str	-2039
▁dem	-2040
▁achie	-2041
▁check	-2042
▁maintain	-2043
▁self	-2044
eb	-2045
▁soil	-2046
▁meet	-2047
▁vers	-2048
▁evidence	-2049
▁opportun	-2050
▁abs	-2051
ivity	-2052
▁port	-2053
uals	-2054
://	-2055
aging	-2056
oman	-2057
▁init	-2058
▁stop	-2059
▁almost	-2060
▁toward	-2061
▁thought	-2062
▁safe	-2063
▁throughout	-2064
▁understanding	-2065
▁2.	-2066
▁clean	-2067
▁avoid	-2068
▁image	-2069
▁veget	-2070
▁Center	-2071
2,	-2072
▁city	-2073
▁potential	-2074
icy	-2075
ened	-2076
▁hours	-2077
▁prote	-2078
▁collect	-2079
▁six	-2080
▁Germ	-2081
▁related	-2082
▁teeth	-2083
▁experien	-2084
ober	-2085
rict	-2086
▁squ	-2087
iddle	-2088
▁region	-2089
▁environmental	-2090
▁diagn	-2091
▁helps	-2092
ney	-2093
▁Des	-2094
▁relations	-2095
arent	-2096
lands	-2097
vere	-2098
▁stat	-2099
▁value	-2100
val	-2101
▁50	-2102
ores	-2103
▁bur	-2104
▁lay	-2105
▁contact	-2106
wh	-2107
▁ver	-2108
▁practice	-2109
▁recent	-2110
▁carbon	-2111
uel	-2112
▁stress	-2113
▁popular	-2114
▁model	-2115
▁content	-2116
ensive	-2117
ann	-2118
▁groups	-2119
▁pattern	-2120
▁regular	-2121
ask	-2122
ung	-2123
umb	-2124
yle	-2125
inks	-2126
ivil	-2127
▁fru	-2128
▁states	-2129
nam	-2130
▁dest	-2131
▁complex	-2132
ES	-2133
▁saf	-2134
▁Pres	-2135
▁somet	-2136
▁assess	-2137
duc	-2138
▁animal	-2139
▁travel	-2140
ises	-2141
ming	-2142
30	-2143
ification	-2144
pid	-2145
idered	-2146
▁built	-2147
▁video	-2148
▁caused	-2149
▁entire	-2150
▁Qu	-2151
adem	-2152
▁bacter	-2153
▁experim	-2154
urch	-2155
eding	-2156
ows	-2157
▁Read	-2158
▁Other	-2159
sych	-2160
▁100	-2161
▁bar	-2162
▁associated	-2163
▁developing	-2164
▁react	-2165
▁nature	-2166
▁rather	-2167
▁personal	-2168
eter	-2169
▁members	-2170
▁teachers	-2171
ply	-2172
▁Em	-2173
useum	-2174
▁review	-2175
▁spread	-2176
▁Austral	-2177
reme	-2178
▁suff	-2179
▁job	-2180
▁neg	-2181
▁From	-2182
ched	-2183
ze	-2184
based	-2185
ronic	-2186
▁considered	-2187
▁ever	-2188
▁variety	-2189
▁Us	-2190
▁histor	-2191
aced	-2192
rapy	-2193
aily	-2194
room	-2195
▁cat	-2196
▁themselves	-2197
▁draw	-2198
▁uses	-2199
▁warm	-2200
▁Calif	-2201
3.	-2202
▁engine	-2203
▁identify	-2204
▁No	-2205
ength	-2206
erous	-2207
▁doctor	-2208
▁modern	-2209
▁safety	-2210
▁Rep	-2211
▁offic	-2212
▁came	-2213
▁schools	-2214
▁interact	-2215
▁return	-2216
▁According	-2217
▁sometimes	-2218
5.	-2219
ront	-2220
▁fri	-2221
▁earth	-2222
▁Our	-2223
▁ago	-2224
▁fig	-2225
▁oil	-2226
▁tot	-2227
▁fire	-2228
ttp	-2229
ging	-2230
itud	-2231
▁slow	-2232
oph	-2233
▁inj	-2234
vey	-2235
▁gard	-2236
▁cannot	-2237
sh	-2238
▁Day	-2239
▁sam	-2240
pro	-2241
▁Rec	-2242
▁yet	-2243
▁solar	-2244
▁causes	-2245
hood	-2246
rences	-2247
▁emer	-2248
▁longer	-2249
▁star	-2250
__	-2251
▁cra	-2252
inc	-2253
reg	-2254
reng	-2255
▁Inf	-2256
cient	-2257
▁Educ	-2258
▁0	-2259
▁music	-2260
▁electric	-2261
▁separ	-2262
▁Institute	-2263
▁conduct	-2264
10	-2265
▁British	-2266
▁measure	-2267
▁required	-2268
go	-2269
ush	-2270
anced	-2271
▁farm	-2272
iam	-2273
inci	-2274
overy	-2275
▁disord	-2276
▁Californ	-2277
▁X	-2278
▁Ac	-2279
life	-2280
light	-2281
▁wood	-2282
estern	-2283
aving	-2284
▁basic	-2285
▁training	-2286
ole	-2287
▁Int	-2288
▁habit	-2289
pts	-2290
acks	-2291
▁repl	-2292
▁Su	-2293
▁pay	-2294
▁game	-2295
ricult	-2296
▁trees	-2297
▁previous	-2298
Th	-2299
ules	-2300
▁Par	-2301
izing	-2302
▁programs	-2303
5,	-2304
▁Me	-2305
ellow	-2306
utions	-2307
▁average	-2308
▁break	-2309
▁infection	-2310
▁structure	-2311
We	-2312
▁Cons	-2313
iation	-2314
▁began	-2315
▁believe	-2316
▁writing	-2317
▁Although	-2318
▁sex	-2319
▁Count	-2320
rid	-2321
aling	-2322
▁numbers	-2323
ese	-2324
▁etc	-2325
▁sleep	-2326
▁thing	-2327
▁employ	-2328
▁written	-2329
.)	-2330
aches	-2331
▁walk	-2332
▁California	-2333
▁feet	-2334
▁liter	-2335
▁sense	-2336
▁provided	-2337
▁necessary	-2338
▁Ke	-2339
ulations	-2340
▁strateg	-2341
▁ste	-2342
▁forms	-2343
▁super	-2344
▁197	-2345
▁His	-2346
▁York	-2347
ym	-2348
▁eye	-2349
▁lif	-2350
▁sat	-2351
fully	-2352
▁added	-2353
▁face	-2354
▁explain	-2355
▁meaning	-2356
▁continue	-2357
▁original	-2358
▁threat	-2359
right	-2360
▁series	-2361
▁Department	-2362
▁Per	-2363
▁select	-2364
▁streng	-2365
erved	-2366
▁harm	-2367
▁print	-2368
▁tools	-2369
▁getting	-2370
▁growing	-2371
▁relationship	-2372
▁adults	-2373
▁itself	-2374
▁sources	-2375
1,	-2376
ai	-2377
▁(2	-2378
▁money	-2379
▁looking	-2380
▁Not	-2381
elling	-2382
istance	-2383
▁website	-2384
chan	-2385
asc	-2386
lex	-2387
▁bring	-2388
▁movement	-2389
▁services	-2390
▁ox	-2391
▁factors	-2392
IS	-2393
apan	-2394
▁ice	-2395
▁path	-2396
▁share	-2397
ades	-2398
▁events	-2399
ene	-2400
oor	-2401
▁doing	-2402
▁origin	-2403
▁exercise	-2404
▁...	-2405
▁mor	-2406
▁heav	-2407
▁drink	-2408
▁behavior	-2409
ume	-2410
▁ideas	-2411
▁night	-2412
oes	-2413
▁NA	-2414
▁ut	-2415
amed	-2416
▁prop	-2417
ners	-2418
yl	-2419
iol	-2420
cean	-2421
▁tree	-2422
rought	-2423
▁answer	-2424
▁determine	-2425
alu	-2426
▁Har	-2427
▁benefits	-2428
gn	-2429
▁tur	-2430
▁terms	-2431
▁service	-2432
--	-2433
▁sn	-2434
urity	-2435
▁deep	-2436
▁encoura	-2437
▁individuals	-2438
▁Ju	-2439
▁198	-2440
▁birth	-2441
▁increasing	-2442
▁,	-2443
▁Tw	-2444
▁hyd	-2445
▁took	-2446
▁active	-2447
▁damage	-2448
▁forest	-2449
▁multip	-2450
▁love	-2451
▁someone	-2452
▁management	-2453
ufact	-2454
abetes	-2455
▁serious	-2456
▁Gl	-2457
▁Jan	-2458
▁fail	-2459
ederal	-2460
▁probably	-2461
▁tests	-2462
epend	-2463
▁takes	-2464
▁minutes	-2465
▁led	-2466
▁Now	-2467
▁fem	-2468
▁action	-2469
mb	-2470
▁Sm	-2471
astic	-2472
▁mach	-2473
edia	-2474
▁App	-2475
▁ec	-2476
▁demon	-2477
▁images	-2478
▁diseases	-2479
rad	-2480
onse	-2481
▁news	-2482
▁wall	-2483
▁Japan	-2484
▁doesn	-2485
▁contains	-2486
▁standard	-2487
IN	-2488
▁sea	-2489
▁matter	-2490
▁Inc	-2491
ground	-2492
load	-2493
▁exc	-2494
▁network	-2495
▁economic	-2496
sect	-2497
▁inside	-2498
▁shown	-2499
uge	-2500
rench	-2501
vention	-2502
joy	-2503
▁arr	-2504
▁late	-2505
aff	-2506
▁tar	-2507
▁industry	-2508
lt	-2509
oon	-2510
hold	-2511
▁stra	-2512
▁simply	-2513
▁political	-2514
▁x	-2515
new	-2516
▁Of	-2517
▁Water	-2518
▁daily	-2519
orthern	-2520
▁tiss	-2521
▁virus	-2522
▁lat	-2523
▁displ	-2524
▁analysis	-2525
▁II	-2526
▁expos	-2527
▁issue	-2528
▁micro	-2529
itation	-2530
▁produced	-2531
imin	-2532
▁dom	-2533
atives	-2534
▁cover	-2535
▁reported	-2536
oring	-2537
▁cool	-2538
itamin	-2539
▁remov	-2540
▁easily	-2541
3,	-2542
ON	-2543
▁cele	-2544
▁defin	-2545
▁scientific	-2546
6.	-2547
apt	-2548
▁Art	-2549
▁http	-2550
▁vacc	-2551
istics	-2552
ography	-2553
7.	-2554
9.	-2555
▁My	-2556
imately	-2557
▁allows	-2558
IV	-2559
ropri	-2560
▁eating	-2561
▁market	-2562
ington	-2563
minist	-2564
▁books	-2565
▁subst	-2566
▁total	-2567
▁write	-2568
▁greater	-2569
▁Min	-2570
▁Will	-2571
▁magn	-2572
▁unique	-2573
9,	-2574
iter	-2575
▁Medic	-2576
4,	-2577
▁3.	-2578
▁Ed	-2579
lies	-2580
itary	-2581
usion	-2582
verse	-2583
▁mess	-2584
▁25	-2585
uary	-2586
ounds	-2587
▁methods	-2588
▁Dav	-2589
▁bal	-2590
▁priv	-2591
issions	-2592
▁regard	-2593
▁patient	-2594
▁/	-2595
▁Her	-2596
▁Comp	-2597
▁baby	-2598
▁:	-2599
ancy	-2600
ille	-2601
gency	-2602
▁reve	-2603
▁River	-2604
▁estim	-2605
▁approach	-2606
son	-2607
▁thous	-2608
▁extreme	-2609
▁Use	-2610
▁dang	-2611
▁breat	-2612
▁miles	-2613
▁compan	-2614
set	-2615
▁conc	-2616
▁prep	-2617
4.	-2618
▁bit	-2619
▁stri	-2620
▁Sec	-2621
▁bul	-2622
▁China	-2623
▁March	-2624
bo	-2625
▁ir	-2626
▁Bec	-2627
▁Mon	-2628
ister	-2629
▁outside	-2630
know	-2631
ster	-2632
▁During	-2633
▁account	-2634
arily	-2635
▁company	-2636
▁196	-2637
▁concent	-2638
book	-2639
rior	-2640
▁offer	-2641
ties	-2642
aries	-2643
▁waste	-2644
▁included	-2645
▁essential	-2646
cks	-2647
ops	-2648
sequ	-2649
▁seem	-2650
▁upon	-2651
▁humans	-2652
▁dry	-2653
▁June	-2654
▁dark	-2655
▁weeks	-2656
AR	-2657
▁rock	-2658
▁ensure	-2659
▁European	-2660
▁manufact	-2661
▁teaching	-2662
▁bacteria	-2663
▁involved	-2664
▁Why	-2665
aters	-2666
▁eyes	-2667
▁investig	-2668
▁relative	-2669
▁communities	-2670
▁arg	-2671
▁Also	-2672
▁Since	-2673
▁behind	-2674
▁larger	-2675
▁summer	-2676
▁instead	-2677
ID	-2678
▁40	-2679
▁hot	-2680
iques	-2681
rated	-2682
▁First	-2683
▁integ	-2684
▁center	-2685
▁largest	-2686
bol	-2687
term	-2688
▁document	-2689
▁Education	-2690
water	-2691
▁Part	-2692
▁guid	-2693
▁rare	-2694
ls	-2695
het	-2696
▁claim	-2697
▁Ant	-2698
▁Children	-2699
▁planet	-2700
▁families	-2701
▁positive	-2702
▁particularly	-2703
▁Prog	-2704
▁poor	-2705
▁nation	-2706
8.	-2707
▁Ag	-2708
▁Bar	-2709
▁Red	-2710
▁enjoy	-2711
▁quite	-2712
▁weather	-2713
It	-2714
aly	-2715
▁log	-2716
itect	-2717
▁Char	-2718
▁search	-2719
▁difference	-2720
cies	-2721
resh	-2722
▁length	-2723
▁correct	-2724
▁position	-2725
▁Prof	-2726
▁relig	-2727
8,	-2728
my	-2729
ims	-2730
▁jo	-2731
asons	-2732
▁coun	-2733
▁evalu	-2734
▁sugar	-2735
▁leaves	-2736
▁objects	-2737
dom	-2738
iency	-2739
▁mechan	-2740
▁target	-2741
▁started	-2742
▁compared	-2743
▁software	-2744
hens	-2745
oday	-2746
▁cold	-2747
▁foot	-2748
▁hair	-2749
▁town	-2750
▁accur	-2751
▁reflect	-2752
AT	-2753
▁refer	-2754
▁French	-2755
▁princi	-2756
▁lo	-2757
▁rob	-2758
▁web	-2759
▁Even	-2760
▁severe	-2761
▁Americans	-2762
▁*	-2763
hel	-2764
▁media	-2765
-2	-2766
11	-2767
mosp	-2768
▁Fran	-2769
▁mount	-2770
▁King	-2771
▁features	-2772
▁surround	-2773
▁additional	-2774
▁Gra	-2775
▁2012	-2776
▁Wash	-2777
▁gain	-2778
▁true	-2779
ibrary	-2780
▁challeng	-2781
ban	-2782
▁Park	-2783
▁Techn	-2784
▁Indian	-2785
rition	-2786
undred	-2787
▁India	-2788
▁ap	-2789
ached	-2790
▁card	-2791
▁mill	-2792
▁Associ	-2793
rial	-2794
▁Apr	-2795
▁egg	-2796
rogen	-2797
▁compet	-2798
▁nearly	-2799
▁attention	-2800
pose	-2801
rast	-2802
▁194	-2803
erson	-2804
▁rain	-2805
▁sites	-2806
▁feed	-2807
lection	-2808
▁compon	-2809
▁consist	-2810
▁protein	-2811
▁quickly	-2812
ns	-2813
▁sil	-2814
▁leading	-2815
▁response	-2816
▁discovered	-2817
bor	-2818
iet	-2819
cles	-2820
▁traditional	-2821
7,	-2822
▁hor	-2823
▁held	-2824
▁tend	-2825
pper	-2826
▁ball	-2827
▁altern	-2828
inary	-2829
ension	-2830
▁Canada	-2831
▁winter	-2832
imum	-2833
▁Are	-2834
▁Serv	-2835
▁camp	-2836
▁birds	-2837
▁drugs	-2838
▁supply	-2839
▁demonstr	-2840
▁Great	-2841
OR	-2842
rs	-2843
outhern	-2844
▁accept	-2845
▁culture	-2846
▁respect	-2847
irm	-2848
avor	-2849
rees	-2850
stain	-2851
where	-2852
▁Once	-2853
▁acid	-2854
eration	-2855
▁Ty	-2856
ucle	-2857
▁Pol	-2858
▁tax	-2859
▁useful	-2860
▁History	-2861
▁section	-2862
▁teacher	-2863
▁Tra	-2864
▁rev	-2865
ching	-2866
itude	-2867
▁pack	-2868
▁stay	-2869
▁coast	-2870
▁multiple	-2871
AN	-2872
fect	-2873
uries	-2874
▁cross	-2875
▁County	-2876
▁primary	-2877
att	-2878
bre	-2879
▁NASA	-2880
▁exact	-2881
▁achieve	-2882
▁implement	-2883
itis	-2884
lick	-2885
▁Each	-2886
▁fast	-2887
▁construction	-2888
wise	-2889
▁soon	-2890
ctions	-2891
▁speed	-2892
cription	-2893
▁concept	-2894
▁Students	-2895
▁techniques	-2896
▁1,	-2897
▁bra	-2898
▁international	-2899
nov	-2900
▁dy	-2901
▁capt	-2902
▁psych	-2903
▁Cor	-2904
▁West	-2905
isions	-2906
▁extra	-2907
ropriate	-2908
aught	-2909
▁2010	-2910
▁Phil	-2911
▁Today	-2912
▁pregn	-2913
ief	-2914
iot	-2915
▁drug	-2916
▁memory	-2917
▁located	-2918
▁International	-2919
▁Bu	-2920
▁Oct	-2921
▁recently	-2922
▁deb	-2923
▁pan	-2924
▁told	-2925
IC	-2926
coh	-2927
ift	-2928
▁bad	-2929
▁reach	-2930
ribution	-2931
▁beginning	-2932
▁generally	-2933
ulate	-2934
▁July	-2935
▁hands	-2936
▁immedi	-2937
▁ancient	-2938
▁interesting	-2939
▁aw	-2940
gery	-2941
▁har	-2942
▁Sept	-2943
▁Dis	-2944
cohol	-2945
▁hope	-2946
ulf	-2947
▁Reg	-2948
▁veh	-2949
ively	-2950
▁decre	-2951
▁gives	-2952
▁season	-2953
▁sustain	-2954
ustom	-2955
▁Over	-2956
▁garden	-2957
▁express	-2958
▁diabetes	-2959
ica	-2960
▁pet	-2961
▁born	-2962
▁code	-2963
▁lack	-2964
▁road	-2965
▁viol	-2966
▁directly	-2967
▁Washington	-2968
year	-2969
▁ones	-2970
▁carry	-2971
▁third	-2972
▁hundred	-2973
▁society	-2974
cil	-2975
iny	-2976
oke	-2977
head	-2978
▁Cur	-2979
▁got	-2980
hemat	-2981
▁mole	-2982
▁spir	-2983
nes	-2984
▁lines	-2985
cell	-2986
▁fuel	-2987
▁electr	-2988
na	-2989
lin	-2990
rate	-2991
▁base	-2992
▁seems	-2993
▁illust	-2994
▁classroom	-2995
mission	-2996
▁exposure	-2997
▁fit	-2998
▁milk	-2999
inical	-3000
▁front	-3001
▁shape	-3002
▁creating	-3003
12	-3004
▁cam	-3005
▁cit	-3006
▁mouth	-3007
▁south	-3008
ios	-3009
▁beaut	-3010
▁critical	-3011
▁i	-3012
▁file	-3013
▁Because	-3014
▁companies	-3015
▁lost	-3016
▁policy	-3017
che	-3018
ech	-3019
▁rout	-3020
▁older	-3021
▁proced	-3022
6,	-3023
IT	-3024
estic	-3025
oming	-3026
▁goal	-3027
▁fight	-3028
▁points	-3029
▁findings	-3030
uls	-3031
▁April	-3032
ino	-3033
imal	-3034
ounts	-3035
▁tooth	-3036
▁Aug	-3037
▁highly	-3038
▁insect	-3039
oud	-3040
atur	-3041
▁See	-3042
▁force	-3043
elt	-3044
www	-3045
▁fa	-3046
inct	-3047
▁blue	-3048
▁emot	-3049
▁People	-3050
▁middle	-3051
▁places	-3052
▁protection	-3053
▁Sur	-3054
▁dou	-3055
▁Scient	-3056
▁genetic	-3057
▁Sol	-3058
▁ang	-3059
istry	-3060
▁rates	-3061
ologies	-3062
▁atmosp	-3063
▁remember	-3064
▁24	-3065
vest	-3066
▁prior	-3067
▁symbol	-3068
oe	-3069
▁wa	-3070
▁theory	-3071
▁central	-3072
uth	-3073
▁lun	-3074
omy	-3075
▁(19	-3076
▁Che	-3077
▁DNA	-3078
▁commit	-3079
▁projects	-3080
▁established	-3081
ED	-3082
EN	-3083
▁Sw	-3084
iece	-3085
▁analy	-3086
▁north	-3087
▁expect	-3088
▁please	-3089
ius	-3090
▁Feb	-3091
orial	-3092
▁negative	-3093
ony	-3094
haps	-3095
▁bott	-3096
▁table	-3097
▁breast	-3098
▁devices	-3099
▁monitor	-3100
▁situation	-3101
ding	-3102
ords	-3103
▁Vir	-3104
▁aud	-3105
▁attack	-3106
▁occurs	-3107
▁remains	-3108
▁strength	-3109
▁block	-3110
▁location	-3111
▁requires	-3112
▁everything	-3113
iber	-3114
▁swe	-3115
odies	-3116
▁Africa	-3117
▁mental	-3118
▁Internet	-3119
▁performance	-3120
▁civil	-3121
▁fruit	-3122
▁named	-3123
▁install	-3124
▁smaller	-3125
▁conservation	-3126
dd	-3127
▁Mich	-3128
▁steps	-3129
▁official	-3130
▁Environment	-3131
▁mid	-3132
▁copy	-3133
▁teach	-3134
▁elements	-3135
▁resource	-3136
▁providing	-3137
▁speak	-3138
▁educational	-3139
fort	-3140
lied	-3141
▁cou	-3142
▁map	-3143
▁independ	-3144
▁thinking	-3145
aid	-3146
ror	-3147
aste	-3148
▁eight	-3149
▁Museum	-3150
▁trying	-3151
▁Develop	-3152
▁picture	-3153
▁examples	-3154
uous	-3155
ygen	-3156
▁aff	-3157
▁cred	-3158
rig	-3159
▁High	-3160
▁Just	-3161
▁dead	-3162
▁host	-3163
▁insp	-3164
▁agricult	-3165
▁currently	-3166
▁efficient	-3167
bur	-3168
isms	-3169
▁emb	-3170
▁pen	-3171
▁tou	-3172
rance	-3173
▁goes	-3174
▁wond	-3175
▁fresh	-3176
▁signs	-3177
▁whose	-3178
▁offers	-3179
▁affected	-3180
▁City	-3181
▁rich	-3182
▁shap	-3183
▁thus	-3184
arr	-3185
oly	-3186
lier	-3187
idents	-3188
▁attem	-3189
▁gradu	-3190
▁device	-3191
):	-3192
▁UN	-3193
iles	-3194
▁box	-3195
anish	-3196
▁System	-3197
wide	-3198
▁cook	-3199
▁hear	-3200
▁asked	-3201
▁rapid	-3202
▁screen	-3203
▁architect	-3204
ana	-3205
▁El	-3206
▁Web	-3207
▁purch	-3208
oration	-3209
▁billion	-3210
ided	-3211
▁won	-3212
▁aspect	-3213
▁receive	-3214
▁therapy	-3215
▁Australia	-3216
atric	-3217
▁spring	-3218
PA	-3219
come	-3220
▁Val	-3221
▁Then	-3222
▁fram	-3223
itable	-3224
▁games	-3225
entially	-3226
▁January	-3227
▁responsible	-3228
▁scale	-3229
▁Public	-3230
-3	-3231
mar	-3232
This	-3233
▁beg	-3234
▁broad	-3235
▁testing	-3236
▁Bi	-3237
▁date	-3238
▁Found	-3239
▁celebr	-3240
▁African	-3241
▁Program	-3242
▁purpose	-3243
▁everyone	-3244
60	-3245
ky	-3246
izes	-3247
▁Hum	-3248
▁adop	-3249
ologist	-3250
▁digital	-3251
▁explore	-3252
▁version	-3253
13	-3254
see	-3255
rome	-3256
▁room	-3257
▁went	-3258
ospital	-3259
▁becomes	-3260
rote	-3261
▁Mod	-3262
▁lesson	-3263
▁received	-3264
▁solution	-3265
▁transport	-3266
▁collection	-3267
▁temperatures	-3268
yond	-3269
▁basis	-3270
▁respond	-3271
▁commonly	-3272
▁grass	-3273
▁labor	-3274
▁quant	-3275
▁behavi	-3276
▁Jes	-3277
▁math	-3278
▁users	-3279
▁approx	-3280
▁workers	-3281
▁importance	-3282
ha	-3283
▁mix	-3284
▁tum	-3285
▁Book	-3286
▁corn	-3287
illing	-3288
▁assist	-3289
▁benefit	-3290
▁limited	-3291
▁progress	-3292
▁Mc	-3293
▁imag	-3294
▁although	-3295
iful	-3296
▁San	-3297
▁enh	-3298
▁choose	-3299
▁increases	-3300
iar	-3301
raft	-3302
▁div	-3303
▁accom	-3304
▁Commun	-3305
▁native	-3306
▁completely	-3307
In	-3308
RE	-3309
▁adj	-3310
▁muscle	-3311
▁federal	-3312
▁yourself	-3313
idge	-3314
ields	-3315
ipment	-3316
▁recommend	-3317
▁appropriate	-3318
▁tub	-3319
osing	-3320
▁Arch	-3321
▁guide	-3322
▁mother	-3323
▁journal	-3324
▁military	-3325
▁September	-3326
bit	-3327
enty	-3328
itch	-3329
▁Jew	-3330
▁David	-3331
co	-3332
ama	-3333
used	-3334
apter	-3335
▁watch	-3336
▁calcul	-3337
▁display	-3338
ulum	-3339
▁Let	-3340
▁ult	-3341
house	-3342
▁sett	-3343
ribute	-3344
▁Every	-3345
▁leave	-3346
▁leaders	-3347
▁medicine	-3348
iff	-3349
vant	-3350
▁died	-3351
▁commer	-3352
▁Association	-3353
eal	-3354
more	-3355
▁Sim	-3356
▁sand	-3357
▁Colle	-3358
ovember	-3359
▁controll	-3360
▁4.	-3361
iers	-3362
orge	-3363
▁fra	-3364
▁user	-3365
▁track	-3366
▁alcohol	-3367
▁thousands	-3368
▁opportunity	-3369
▁0.	-3370
▁Mus	-3371
▁ing	-3372
▁Miss	-3373
▁infl	-3374
▁rules	-3375
rection	-3376
▁Project	-3377
▁connect	-3378
▁decision	-3379
▁properties	-3380
▁applications	-3381
oma	-3382
ula	-3383
▁mis	-3384
▁huge	-3385
▁sold	-3386
▁final	-3387
▁professor	-3388
▁infections	-3389
enge	-3390
pite	-3391
cember	-3392
elines	-3393
▁assign	-3394
▁oxygen	-3395
▁tissue	-3396
▁costs	-3397
▁member	-3398
▁Learning	-3399
▁21	-3400
reek	-3401
▁tit	-3402
▁Plan	-3403
▁bone	-3404
▁stru	-3405
▁vict	-3406
▁Medical	-3407
▁brought	-3408
▁TH	-3409
atab	-3410
▁hon	-3411
▁click	-3412
▁efforts	-3413
▁treated	-3414
▁suggests	-3415
▁contribut	-3416
DA	-3417
▁ep	-3418
▁HIV	-3419
▁mom	-3420
chers	-3421
▁2011	-3422
▁homes	-3423
▁plans	-3424
rim	-3425
wor	-3426
ulated	-3427
▁vision	-3428
▁William	-3429
▁therefore	-3430
ida	-3431
▁Aut	-3432
▁dro	-3433
arian	-3434
▁Food	-3435
▁fear	-3436
uments	-3437
▁About	-3438
▁Green	-3439
▁October	-3440
▁Profess	-3441
▁Society	-3442
▁President	-3443
▁electricity	-3444
rew	-3445
▁else	-3446
▁miss	-3447
▁ocean	-3448
▁formed	-3449
▁expected	-3450
▁influence	-3451
▁vegetables	-3452
▁professional	-3453
exic	-3454
ender	-3455
known	-3456
▁models	-3457
▁showed	-3458
ext	-3459
▁Bo	-3460
king	-3461
ping	-3462
▁Don	-3463
▁tox	-3464
▁email	-3465
▁exhib	-3466
▁stage	-3467
▁effort	-3468
▁illness	-3469
▁learned	-3470
bl	-3471
▁ST	-3472
anks	-3473
▁capac	-3474
▁Please	-3475
▁chance	-3476
▁immune	-3477
▁instit	-3478
▁Medicine	-3479
▁cultural	-3480
▁typically	-3481
zz	-3482
aur	-3483
iant	-3484
▁gold	-3485
▁laun	-3486
▁details	-3487
▁collabor	-3488
gy	-3489
▁der	-3490
inese	-3491
▁German	-3492
uk	-3493
▁60	-3494
ocks	-3495
ensity	-3496
▁graph	-3497
▁piece	-3498
▁element	-3499
▁application	-3500
pes	-3501
asts	-3502
▁cro	-3503
▁didn	-3504
▁Jesus	-3505
▁court	-3506
▁glass	-3507
▁perfect	-3508
▁emissions	-3509
AC	-3510
hors	-3511
▁isn	-3512
ctors	-3513
▁Mars	-3514
▁fert	-3515
ologists	-3516
▁reasons	-3517
▁communication	-3518
▁Fin	-3519
▁August	-3520
▁Energy	-3521
▁academ	-3522
▁except	-3523
▁figure	-3524
▁waters	-3525
rehens	-3526
▁Using	-3527
▁instru	-3528
▁placed	-3529
era	-3530
ris	-3531
▁dogs	-3532
▁spot	-3533
▁Mexic	-3534
▁Their	-3535
▁records	-3536
▁November	-3537
▁experiment	-3538
”.	-3539
ams	-3540
atin	-3541
ruary	-3542
▁rule	-3543
▁style	-3544
▁wrote	-3545
riculum	-3546
▁custom	-3547
▁sem	-3548
▁Journal	-3549
▁articles	-3550
back	-3551
▁ves	-3552
▁Inst	-3553
▁hous	-3554
▁conce	-3555
▁flood	-3556
▁giving	-3557
▁obtain	-3558
▁evolution	-3559
aul	-3560
can	-3561
aled	-3562
▁Law	-3563
▁pal	-3564
ample	-3565
▁Under	-3566
▁coming	-3567
izations	-3568
▁release	-3569
80	-3570
AL	-3571
▁rise	-3572
▁root	-3573
▁allerg	-3574
▁worked	-3575
ographic	-3576
▁vitamin	-3577
▁chemicals	-3578
▁historical	-3579
ero	-3580
▁hol	-3581
▁Flor	-3582
▁fair	-3583
▁antib	-3584
▁visual	-3585
▁Another	-3586
▁overall	-3587
▁anything	-3588
▁practices	-3589
40	-3590
▁CO	-3591
cers	-3592
▁gir	-3593
▁scen	-3594
▁nutri	-3595
▁parent	-3596
▁England	-3597
▁distance	-3598
▁topic	-3599
▁College	-3600
▁December	-3601
▁differences	-3602
ST	-3603
que	-3604
▁UK	-3605
▁Sub	-3606
▁saw	-3607
▁via	-3608
▁decl	-3609
▁poly	-3610
▁river	-3611
▁observ	-3612
yd	-3613
med	-3614
▁buy	-3615
▁son	-3616
▁ten	-3617
▁Phys	-3618
▁nucle	-3619
▁moving	-3620
▁survey	-3621
▁private	-3622
▁believed	-3623
▁mathemat	-3624
▁patterns	-3625
▁conducted	-3626
ully	-3627
▁Dec	-3628
craft	-3629
▁gets	-3630
▁happen	-3631
▁surgery	-3632
ham	-3633
pan	-3634
hest	-3635
▁mob	-3636
▁News	-3637
▁degrees	-3638
▁mission	-3639
▁northern	-3640
▁populations	-3641
▁Cong	-3642
▁deal	-3643
▁susp	-3644
▁Trans	-3645
▁surpr	-3646
▁degree	-3647
▁expand	-3648
▁interp	-3649
▁invent	-3650
▁equipment	-3651
▁standards	-3652
EM	-3653
ingu	-3654
▁kid	-3655
▁East	-3656
▁links	-3657
▁neigh	-3658
▁pages	-3659
areness	-3660
▁easier	-3661
ira	-3662
▁Work	-3663
▁pick	-3664
▁advant	-3665
▁options	-3666
▁reports	-3667
▁towards	-3668
▁February	-3669
▁planning	-3670
esc	-3671
osy	-3672
ceed	-3673
orpor	-3674
▁Post	-3675
▁liqu	-3676
▁stream	-3677
▁Chinese	-3678
▁followed	-3679
care	-3680
▁Tex	-3681
▁Prot	-3682
▁laws	-3683
▁Space	-3684
▁finan	-3685
▁causing	-3686
▁conflic	-3687
▁feature	-3688
".	-3689
off	-3690
▁store	-3691
▁hearing	-3692
eces	-3693
odes	-3694
▁excess	-3695
▁administ	-3696
▁nutrition	-3697
15	-3698
▁Russ	-3699
▁tips	-3700
▁citiz	-3701
▁General	-3702
equ	-3703
omb	-3704
olic	-3705
▁Two	-3706
▁cop	-3707
▁load	-3708
▁office	-3709
▁friends	-3710
▁predict	-3711
▁released	-3712
▁processes	-3713
oo	-3714
roy	-3715
▁Di	-3716
ibly	-3717
▁Hel	-3718
ession	-3719
▁Click	-3720
▁beyond	-3721
▁reduced	-3722
▁running	-3723
▁construct	-3724
▁described	-3725
▁Information	-3726
▁note	-3727
mitted	-3728
▁colon	-3729
▁ready	-3730
▁Church	-3731
▁depend	-3732
▁transl	-3733
▁earlier	-3734
▁property	-3735
19	-3736
▁max	-3737
▁Coun	-3738
ndrome	-3739
▁Inter	-3740
▁divid	-3741
▁female	-3742
",	-3743
ford	-3744
time	-3745
▁Bra	-3746
▁Net	-3747
▁mal	-3748
iable	-3749
▁absor	-3750
▁favor	-3751
▁initi	-3752
▁batter	-3753
ogle	-3754
pped	-3755
▁anti	-3756
▁vessel	-3757
▁pollution	-3758
ken	-3759
▁Ass	-3760
▁Mary	-3761
▁Test	-3762
▁prec	-3763
▁notes	-3764
▁seven	-3765
▁square	-3766
▁complic	-3767
▁forward	-3768
▁disorder	-3769
▁powerful	-3770
▁presented	-3771
▁identified	-3772
Wh	-3773
▁Av	-3774
▁Rem	-3775
▁categ	-3776
▁limit	-3777
▁detect	-3778
▁spirit	-3779
▁values	-3780
▁yellow	-3781
▁performed	-3782
▁technologies	-3783
▁+	-3784
uit	-3785
▁Spe	-3786
▁stars	-3787
▁astron	-3788
▁flowers	-3789
▁gal	-3790
▁Learn	-3791
▁names	-3792
osition	-3793
▁George	-3794
▁allowed	-3795
▁buildings	-3796
▁eventually	-3797
▁Get	-3798
▁Rel	-3799
▁bed	-3800
▁mig	-3801
oking	-3802
▁king	-3803
▁repe	-3804
▁colors	-3805
ifically	-3806
▁setting	-3807
▁stories	-3808
▁measures	-3809
▁security	-3810
▁opportunities	-3811
▁upd	-3812
▁song	-3813
▁Christian	-3814
▁interested	-3815
▁tele	-3816
▁unit	-3817
▁autom	-3818
▁novel	-3819
▁Island	-3820
▁strugg	-3821
▁successful	-3822
17	-3823
gal	-3824
▁Ob	-3825
▁Mat	-3826
▁eth	-3827
cious	-3828
ightly	-3829
▁Roman	-3830
▁effic	-3831
▁multi	-3832
▁physic	-3833
▁decades	-3834
▁machine	-3835
▁regions	-3836
▁dangerous	-3837
▁establish	-3838
ondon	-3839
▁items	-3840
▁bodies	-3841
▁bottom	-3842
▁famous	-3843
/2	-3844
isl	-3845
▁Bas	-3846
▁Pat	-3847
▁Disc	-3848
▁Fore	-3849
▁iron	-3850
▁snow	-3851
▁Spanish	-3852
▁letters	-3853
uff	-3854
▁193	-3855
▁Its	-3856
▁bran	-3857
▁fully	-3858
▁college	-3859
▁president	-3860
aint	-3861
oses	-3862
▁Lou	-3863
orage	-3864
▁Black	-3865
▁Texas	-3866
▁spect	-3867
▁Service	-3868
▁balance	-3869
▁chronic	-3870
ictionary	-3871
▁radiation	-3872
▁alternative	-3873
airs	-3874
▁Cle	-3875
▁save	-3876
▁heavy	-3877
▁phone	-3878
▁Technology	-3879
▁pi	-3880
rest	-3881
▁wet	-3882
▁horm	-3883
▁appears	-3884
▁decisions	-3885
▁estimated	-3886
▁technique	-3887
14	-3888
iring	-3889
▁alone	-3890
related	-3891
▁convers	-3892
▁covered	-3893
▁extremely	-3894
edic	-3895
rief	-3896
▁Def	-3897
▁aim	-3898
▁meat	-3899
atabase	-3900
▁former	-3901
▁remove	-3902
▁topics	-3903
▁partners	-3904
▁approximately	-3905
roid	-3906
▁solid	-3907
▁staff	-3908
▁choice	-3909
▁conver	-3910
▁demand	-3911
▁attempt	-3912
▁authors	-3913
▁finding	-3914
▁5.	-3915
ares	-3916
chol	-3917
▁sequ	-3918
▁trou	-3919
▁inform	-3920
▁resistance	-3921
▁hyp	-3922
apers	-3923
encies	-3924
▁equal	-3925
▁innov	-3926
▁habitat	-3927
▁showing	-3928
▁Researchers	-3929
▁immediately	-3930
cipl	-3931
osop	-3932
▁Mic	-3933
▁fine	-3934
▁House	-3935
▁occup	-3936
▁faster	-3937
▁linked	-3938
▁sexual	-3939
▁Florida	-3940
▁applied	-3941
▁changed	-3942
▁organic	-3943
▁instruct	-3944
▁wildlife	-3945
▁consumption	-3946
▁22	-3947
▁pow	-3948
▁und	-3949
▁Find	-3950
▁Last	-3951
▁norm	-3952
▁phil	-3953
▁apply	-3954
▁London	-3955
▁belief	-3956
ste	-3957
▁Up	-3958
▁Expl	-3959
▁Govern	-3960
▁Western	-3961
▁atmosphere	-3962
▁electrical	-3963
ocr	-3964
▁vo	-3965
rows	-3966
▁fro	-3967
▁nan	-3968
ordin	-3969
▁qual	-3970
▁stim	-3971
▁dental	-3972
▁economy	-3973
▁muscles	-3974
▁beautiful	-3975
▁comprehens	-3976
▁relatively	-3977
▁experiences	-3978
ffee	-3979
allow	-3980
▁Make	-3981
▁eggs	-3982
▁metal	-3983
▁island	-3984
▁generation	-3985
▁recommended	-3986
ara	-3987
lor	-3988
ped	-3989
opes	-3990
▁Ang	-3991
▁pul	-3992
▁2013	-3993
▁upper	-3994
▁cities	-3995
▁Germany	-3996
▁capital	-3997
▁experts	-3998
▁plastic	-3999
▁existing	-4000
▁majority	-4001
▁Cour	-4002
▁cand	-4003
ishing	-4004
▁motor	-4005
▁woman	-4006
▁changing	-4007
▁aid	-4008
▁rot	-4009
▁asse	-4010
▁blog	-4011
▁trig	-4012
▁Rober	-4013
▁Social	-4014
▁height	-4015
▁speech	-4016
▁command	-4017
▁constant	-4018
▁download	-4019
▁continued	-4020
▁functions	-4021
rm	-4022
▁rang	-4023
▁separate	-4024
▁assessment	-4025
▁strategies	-4026
▁structures	-4027
gra	-4028
▁cru	-4029
▁dri	-4030
▁Wild	-4031
▁salt	-4032
▁goals	-4033
▁looks	-4034
▁wrong	-4035
▁discover	-4036
▁Professor	-4037
ags	-4038
▁burn	-4039
▁tiny	-4040
▁vill	-4041
▁father	-4042
▁helping	-4043
▁medications	-4044
70	-4045
▁©	-4046
resp	-4047
erate	-4048
▁board	-4049
▁Academ	-4050
▁friend	-4051
▁widely	-4052
▁actions	-4053
▁context	-4054
▁warming	-4055
▁starting	-4056
ctic	-4057
▁mos	-4058
▁Note	-4059
▁Human	-4060
▁adult	-4061
▁message	-4062
▁becoming	-4063
▁transfer	-4064
▁challenges	-4065
▁Development	-4066
EC	-4067
phas	-4068
▁Hen	-4069
▁film	-4070
▁grade	-4071
▁moist	-4072
▁spent	-4073
▁latest	-4074
▁taught	-4075
▁highest	-4076
▁statement	-4077
▁photograph	-4078
name	-4079
▁Mal	-4080
▁pip	-4081
tical	-4082
▁hour	-4083
▁stro	-4084
▁vary	-4085
▁peace	-4086
▁nothing	-4087
▁discovery	-4088
▁introduced	-4089
▁Mor	-4090
▁shar	-4091
iverse	-4092
▁trade	-4093
▁annual	-4094
▁factor	-4095
▁exactly	-4096
▁drinking	-4097
▁direction	-4098
St	-4099
eed	-4100
▁Bel	-4101
▁Mount	-4102
▁France	-4103
▁bright	-4104
▁disorders	-4105
▁solutions	-4106
isher	-4107
itage	-4108
▁Mart	-4109
▁exec	-4110
▁sect	-4111
▁worth	-4112
▁Cancer	-4113
▁destroy	-4114
▁challenge	-4115
arge	-4116
▁Fam	-4117
iling	-4118
▁park	-4119
▁brown	-4120
▁Google	-4121
▁storage	-4122
▁academic	-4123
▁properly	-4124
▁household	-4125
▁commercial	-4126
ev	-4127
▁80	-4128
▁90	-4129
ocol	-4130
omas	-4131
▁mag	-4132
▁acqu	-4133
▁cycle	-4134
▁facts	-4135
rations	-4136
▁sample	-4137
▁happens	-4138
▁mention	-4139
▁contract	-4140
▁reducing	-4141
bed	-4142
▁2,	-4143
iding	-4144
▁virt	-4145
▁anyone	-4146
▁promot	-4147
▁attract	-4148
▁encourage	-4149
▁#	-4150
sec	-4151
▁clos	-4152
▁agree	-4153
▁reprodu	-4154
▁religious	-4155
▁combination	-4156
▁Op	-4157
force	-4158
imens	-4159
ought	-4160
oxide	-4161
▁cloth	-4162
▁drive	-4163
▁moved	-4164
▁financial	-4165
▁Foundation	-4166
fl	-4167
ses	-4168
edom	-4169
reet	-4170
▁task	-4171
▁enter	-4172
▁risks	-4173
▁round	-4174
▁letter	-4175
asks	-4176
▁Off	-4177
▁Pal	-4178
▁die	-4179
▁urban	-4180
▁expert	-4181
▁classes	-4182
▁concepts	-4183
▁background	-4184
▁>	-4185
mark	-4186
▁nit	-4187
▁looked	-4188
▁clearly	-4189
▁clinical	-4190
▁frequently	-4191
xi	-4192
quit	-4193
▁Cam	-4194
▁Mil	-4195
▁mel	-4196
▁Rich	-4197
▁ages	-4198
▁pret	-4199
▁injury	-4200
▁landsc	-4201
▁sounds	-4202
▁consequ	-4203
▁defined	-4204
▁reaction	-4205
▁reference	-4206
▁discussion	-4207
hab	-4208
cast	-4209
ogen	-4210
▁advice	-4211
▁begins	-4212
▁affects	-4213
▁lessons	-4214
verty	-4215
▁disp	-4216
▁wave	-4217
▁James	-4218
osystem	-4219
▁passed	-4220
▁served	-4221
▁poverty	-4222
▁removed	-4223
▁components	-4224
CS	-4225
urt	-4226
▁Sal	-4227
▁emp	-4228
▁foss	-4229
▁Elect	-4230
▁Women	-4231
▁renew	-4232
ressive	-4233
▁Common	-4234
▁helped	-4235
▁income	-4236
▁capacity	-4237
▁industrial	-4238
▁organization	-4239
);	-4240
hma	-4241
▁195	-4242
▁Sun	-4243
▁jud	-4244
▁radio	-4245
▁divers	-4246
▁inches	-4247
ognitive	-4248
▁exposed	-4249
▁advanced	-4250
▁citizens	-4251
▁70	-4252
▁Mr	-4253
▁km	-4254
▁kil	-4255
▁galax	-4256
unk	-4257
cont	-4258
board	-4259
cling	-4260
tered	-4261
▁Dire	-4262
▁cars	-4263
▁Treat	-4264
▁compar	-4265
▁excell	-4266
▁pieces	-4267
AS	-4268
ota	-4269
west	-4270
▁190	-4271
▁mut	-4272
othes	-4273
▁church	-4274
▁particles	-4275
▁curriculum	-4276
ago	-4277
rie	-4278
ums	-4279
iment	-4280
▁bird	-4281
▁send	-4282
▁adapt	-4283
▁describe	-4284
zing	-4285
▁Mac	-4286
cular	-4287
itors	-4288
▁Have	-4289
▁bill	-4290
▁jobs	-4291
▁moon	-4292
▁Labor	-4293
▁legal	-4294
▁colleag	-4295
▁replace	-4296
▁univers	-4297
▁pictures	-4298
▁diagnosis	-4299
.’	-4300
aks	-4301
mas	-4302
▁IS	-4303
▁Vis	-4304
▁bud	-4305
▁haz	-4306
anted	-4307
wards	-4308
▁Port	-4309
▁onto	-4310
ptions	-4311
▁grown	-4312
▁kinds	-4313
▁elimin	-4314
▁connection	-4315
▁Environmental	-4316
EL	-4317
ek	-4318
ald	-4319
▁Ev	-4320
▁nav	-4321
▁voc	-4322
inter	-4323
▁Life	-4324
▁pric	-4325
▁seeds	-4326
▁ingred	-4327
▁doctors	-4328
abilities	-4329
▁experienced	-4330
umn	-4331
onds	-4332
roup	-4333
▁Wik	-4334
▁dram	-4335
▁fing	-4336
active	-4337
▁Press	-4338
▁Columb	-4339
▁Mexico	-4340
▁fields	-4341
▁incorpor	-4342
▁involves	-4343
▁surrounding	-4344
lers	-4345
▁Old	-4346
order	-4347
▁2009	-4348
▁Home	-4349
▁Know	-4350
▁core	-4351
▁mamm	-4352
▁Organ	-4353
▁Comput	-4354
▁mostly	-4355
▁calories	-4356
▁explains	-4357
ias	-4358
icip	-4359
▁Mem	-4360
▁arm	-4361
▁Wind	-4362
▁cere	-4363
▁doll	-4364
▁kill	-4365
▁nerv	-4366
▁grand	-4367
▁deaths	-4368
▁forces	-4369
▁Council	-4370
▁farmers	-4371
▁himself	-4372
▁emergency	-4373
▁participants	-4374
aign	-4375
oper	-4376
▁THE	-4377
rolog	-4378
▁gave	-4379
oughly	-4380
▁Review	-4381
▁coffee	-4382
▁status	-4383
▁manufacture	-4384
▁significantly	-4385
za	-4386
ads	-4387
bal	-4388
abul	-4389
uing	-4390
ament	-4391
porary	-4392
▁volunt	-4393
▁insects	-4394
▁perhaps	-4395
AD	-4396
AM	-4397
key	-4398
▁Pub	-4399
▁sky	-4400
▁unf	-4401
ellig	-4402
works	-4403
▁util	-4404
urance	-4405
▁bound	-4406
▁legisl	-4407
▁turned	-4408
▁hundreds	-4409
▁southern	-4410
▁awareness	-4411
born	-4412
▁Bay	-4413
▁gar	-4414
▁vul	-4415
▁Dist	-4416
▁Year	-4417
▁leaf	-4418
▁phen	-4419
▁trend	-4420
▁Through	-4421
▁amounts	-4422
▁completed	-4423
▁effectively	-4424
90	-4425
aus	-4426
▁Sl	-4427
▁hom	-4428
▁clim	-4429
▁fluid	-4430
▁thick	-4431
▁consult	-4432
▁frequency	-4433
CO	-4434
ga	-4435
imer	-4436
▁hit	-4437
▁cast	-4438
▁hunt	-4439
ressed	-4440
▁Virgin	-4441
▁constit	-4442
▁feeling	-4443
▁promote	-4444
▁instance	-4445
▁numerous	-4446
▁perspect	-4447
▁extensive	-4448
▁protected	-4449
▁Scientists	-4450
RO	-4451
des	-4452
▁Any	-4453
enses	-4454
omach	-4455
▁tour	-4456
▁paint	-4457
isation	-4458
▁fertil	-4459
atically	-4460
▁aspects	-4461
▁station	-4462
▁studied	-4463
▁allowing	-4464
▁connected	-4465
18	-4466
do	-4467
asive	-4468
▁Dise	-4469
▁Prov	-4470
▁gene	-4471
▁leads	-4472
▁wonder	-4473
▁meeting	-4474
▁presence	-4475
▁subjects	-4476
▁procedure	-4477
rane	-4478
rates	-4479
▁Like	-4480
▁abuse	-4481
▁prepar	-4482
▁vaccine	-4483
▁distinct	-4484
yn	-4485
enth	-4486
wing	-4487
eline	-4488
▁Phot	-4489
▁appe	-4490
▁weak	-4491
▁defic	-4492
olester	-4493
▁actual	-4494
▁infected	-4495
▁prepared	-4496
▁instruction	-4497
kin	-4498
▁Je	-4499
▁||	-4500
▁Ben	-4501
▁sac	-4502
esity	-4503
yroid	-4504
▁Well	-4505
▁Louis	-4506
▁syndrome	-4507
▁computers	-4508
▁Out	-4509
▁den	-4510
▁Union	-4511
▁Histor	-4512
▁Library	-4513
▁Natural	-4514
▁Congress	-4515
▁treatments	-4516
16	-4517
____	-4518
cium	-4519
iled	-4520
roph	-4521
▁Nor	-4522
▁Paul	-4523
▁Writ	-4524
▁stem	-4525
iology	-4526
▁serve	-4527
▁belong	-4528
▁Britain	-4529
▁carried	-4530
▁morning	-4531
ortunately	-4532
▁6.	-4533
▁MD	-4534
▁Cre	-4535
▁tun	-4536
ville	-4537
xiety	-4538
▁Take	-4539
▁race	-4540
▁Check	-4541
▁Power	-4542
▁aware	-4543
▁layer	-4544
▁stone	-4545
unction	-4546
anguages	-4547
▁database	-4548
▁depending	-4549
▁distribution	-4550
ss	-4551
▁<	-4552
▁CD	-4553
ager	-4554
clus	-4555
icon	-4556
oose	-4557
▁Fre	-4558
▁agg	-4559
▁cry	-4560
▁thr	-4561
antic	-4562
olved	-4563
▁Both	-4564
▁roof	-4565
▁seed	-4566
▁Stand	-4567
▁liquid	-4568
▁prefer	-4569
▁observed	-4570
▁referred	-4571
▁straight	-4572
-0	-4573
li	-4574
ado	-4575
acts	-4576
▁Dem	-4577
▁Sum	-4578
istant	-4579
▁Civil	-4580
▁Latin	-4581
▁walls	-4582
▁explan	-4583
▁tested	-4584
▁detailed	-4585
▁pregnancy	-4586
▁requirements	-4587
▁organizations	-4588
oty	-4589
fish	-4590
▁Met	-4591
▁Tem	-4592
▁god	-4593
▁lov	-4594
acing	-4595
▁Keep	-4596
▁aren	-4597
▁legs	-4598
▁oral	-4599
▁meant	-4600
ributed	-4601
▁emphas	-4602
olesterol	-4603
▁indicate	-4604
ING	-4605
▁AD	-4606
aser	-4607
ball	-4608
▁lic	-4609
asion	-4610
gment	-4611
▁recy	-4612
astern	-4613
ferences	-4614
standing	-4615
▁decided	-4616
▁vehicle	-4617
▁engineering	-4618
▁characteristics	-4619
▁23	-4620
▁pu	-4621
▁Bet	-4622
▁Que	-4623
▁Vol	-4624
▁kit	-4625
arrow	-4626
place	-4627
poses	-4628
▁Asia	-4629
change	-4630
ercury	-4631
▁manage	-4632
▁divided	-4633
▁initial	-4634
▁regarding	-4635
zy	-4636
udd	-4637
▁La	-4638
ilit	-4639
akers	-4640
▁Mark	-4641
▁flat	-4642
▁Carol	-4643
▁answers	-4644
▁improved	-4645
▁ecosystem	-4646
▁resulting	-4647
▁efficiency	-4648
free	-4649
umps	-4650
ounced	-4651
vision	-4652
▁heard	-4653
▁price	-4654
▁output	-4655
▁shared	-4656
▁nuclear	-4657
▁stomach	-4658
▁survive	-4659
▁Japanese	-4660
▁director	-4661
▁containing	-4662
▁depression	-4663
▁guidelines	-4664
▁medication	-4665
ij	-4666
rant	-4667
rupt	-4668
▁Fol	-4669
▁ple	-4670
▁sen	-4671
▁wel	-4672
▁Step	-4673
▁ship	-4674
▁west	-4675
▁brief	-4676
▁youth	-4677
ructure	-4678
▁butter	-4679
▁satell	-4680
aturally	-4681
▁walking	-4682
▁childhood	-4683
▁continues	-4684
▁profession	-4685
▁specifically	-4686
BC	-4687
ees	-4688
men	-4689
▁Ir	-4690
▁Add	-4691
▁ban	-4692
▁jour	-4693
▁opin	-4694
▁sche	-4695
ternal	-4696
▁joint	-4697
▁therm	-4698
▁toxic	-4699
▁battle	-4700
▁notice	-4701
▁inflamm	-4702
▁keeping	-4703
▁visible	-4704
▁creation	-4705
▁millions	-4706
▁nutrients	-4707
▁Commission	-4708
25	-4709
lam	-4710
tes	-4711
igen	-4712
▁Bro	-4713
▁Ser	-4714
▁alg	-4715
▁esc	-4716
▁sav	-4717
▁www	-4718
▁impl	-4719
▁shel	-4720
▁credit	-4721
▁moment	-4722
▁familiar	-4723
▁measured	-4724
▁definition	-4725
ta	-4726
:||	-4727
mat	-4728
omic	-4729
▁Who	-4730
▁Jose	-4731
acific	-4732
▁files	-4733
▁girls	-4734
▁noted	-4735
▁Second	-4736
▁accurate	-4737
▁recorded	-4738
▁sentence	-4739
▁practical	-4740
▁situations	-4741
Ch	-4742
rum	-4743
▁AN	-4744
vity	-4745
▁Jer	-4746
▁sed	-4747
▁Look	-4748
inated	-4749
▁roots	-4750
▁trust	-4751
▁Thomas	-4752
▁museum	-4753
▁comment	-4754
▁originally	-4755
ava	-4756
cel	-4757
▁Id	-4758
clop	-4759
▁pig	-4760
▁male	-4761
▁Color	-4762
▁catch	-4763
▁couple	-4764
▁saying	-4765
▁concern	-4766
▁reality	-4767
▁normally	-4768
ails	-4769
cest	-4770
▁Air	-4771
▁ord	-4772
▁Mass	-4773
▁sort	-4774
acters	-4775
ifying	-4776
ipedia	-4777
▁boost	-4778
▁phase	-4779
abulary	-4780
▁format	-4781
▁counter	-4782
▁samples	-4783
▁relevant	-4784
▁previously	-4785
OT	-4786
▁ju	-4787
wood	-4788
▁Sch	-4789
▁fix	-4790
▁ign	-4791
▁reb	-4792
alled	-4793
eties	-4794
▁Data	-4795
▁Spec	-4796
▁mist	-4797
▁Study	-4798
▁cards	-4799
▁depth	-4800
▁input	-4801
▁wanted	-4802
▁Canadian	-4803
▁colleagues	-4804
sts	-4805
▁Rev	-4806
icide	-4807
▁Lake	-4808
▁seek	-4809
▁vent	-4810
▁essay	-4811
▁Robert	-4812
▁adding	-4813
▁digest	-4814
▁comfort	-4815
▁harmful	-4816
▁hospital	-4817
ixt	-4818
▁Top	-4819
hetic	-4820
▁smoke	-4821
▁spend	-4822
▁tasks	-4823
▁twice	-4824
amental	-4825
▁playing	-4826
▁introduction	-4827
col	-4828
zhe	-4829
rick	-4830
▁192	-4831
▁Sen	-4832
▁dust	-4833
▁teen	-4834
▁Engine	-4835
▁signal	-4836
▁involve	-4837
▁presentation	-4838
gypt	-4839
▁Loc	-4840
▁Teac	-4841
▁Those	-4842
▁crops	-4843
▁genes	-4844
▁lived	-4845
▁stret	-4846
▁vital	-4847
▁pretty	-4848
▁refers	-4849
▁territ	-4850
▁Academy	-4851
▁contrast	-4852
▁advantage	-4853
-20	-4854
itz	-4855
rier	-4856
▁(18	-4857
elesc	-4858
▁2008	-4859
▁flex	-4860
▁roll	-4861
▁robot	-4862
▁touch	-4863
iveness	-4864
▁Before	-4865
▁videos	-4866
ediatric	-4867
▁emotional	-4868
▁regularly	-4869
AP	-4870
ET	-4871
inn	-4872
emic	-4873
igan	-4874
ander	-4875
erals	-4876
icial	-4877
▁coal	-4878
▁diam	-4879
▁kept	-4880
▁quar	-4881
▁Greek	-4882
▁dedic	-4883
▁floor	-4884
▁trial	-4885
▁marine	-4886
▁slowly	-4887
▁choices	-4888
▁driving	-4889
▁harvest	-4890
▁slightly	-4891
▁survival	-4892
.|	-4893
rab	-4894
long	-4895
▁189	-4896
igation	-4897
▁Addition	-4898
▁conflict	-4899
▁consists	-4900
▁mountain	-4901
▁Therefore	-4902
▁cognitive	-4903
▁biological	-4904
ario	-4905
▁Ham	-4906
▁Hol	-4907
▁sin	-4908
etics	-4909
▁2007	-4910
▁List	-4911
▁Alzhe	-4912
▁White	-4913
▁assum	-4914
▁smart	-4915
▁storm	-4916
▁vulner	-4917
▁mosquit	-4918
▁readers	-4919
▁happened	-4920
▁injuries	-4921
▁suitable	-4922
▁breathing	-4923
DF	-4924
osa	-4925
ously	-4926
umber	-4927
▁Gold	-4928
▁Less	-4929
▁biggest	-4930
▁finally	-4931
▁talking	-4932
▁Christmas	-4933
▁excellent	-4934
▁worldwide	-4935
▁contribute	-4936
▁comprehensive	-4937
▁relationships	-4938
tee	-4939
anta	-4940
▁(200	-4941
▁Care	-4942
▁drop	-4943
▁thin	-4944
▁ideal	-4945
▁adjust	-4946
▁sports	-4947
▁volume	-4948
▁focused	-4949
▁helpful	-4950
▁periods	-4951
▁combined	-4952
▁Alzheimer	-4953
▁languages	-4954
▁cholesterol	-4955
CC	-4956
PS	-4957
ari	-4958
▁Ast	-4959
▁Atl	-4960
▁Whe	-4961
▁bow	-4962
▁lik	-4963
▁rat	-4964
▁uns	-4965
osite	-4966
▁fruits	-4967
▁killed	-4968
▁Control	-4969
▁electronic	-4970
▁prevention	-4971
mp	-4972
▁45	-4973
ulin	-4974
▁Lab	-4975
▁Main	-4976
▁wear	-4977
▁Egypt	-4978
▁minor	-4979
ometimes	-4980
▁closely	-4981
▁depends	-4982
▁identity	-4983
▁thoughts	-4984
▁operating	-4985
▁characters	-4986
best	-4987
iate	-4988
oyal	-4989
rosc	-4990
▁spl	-4991
▁lots	-4992
▁hyper	-4993
ception	-4994
▁owners	-4995
▁stroke	-4996
▁failure	-4997
▁library	-4998
▁planets	-4999
▁prepare	-5000
▁Republic	-5001
▁Management	-5002
▁approaches	-5003
▁operations	-5004
▁potentially	-5005
ala	-5006
rot	-5007
bing	-5008
▁soci	-5009
▁Exper	-5010
▁Middle	-5011
▁double	-5012
▁mainly	-5013
▁manner	-5014
▁confirm	-5015
▁Australian	-5016
▁processing	-5017
▁independent	-5018
-5	-5019
ION	-5020
▁28	-5021
▁AL	-5022
▁Fe	-5023
tion	-5024
▁Dig	-5025
▁Nav	-5026
press	-5027
▁conv	-5028
▁holid	-5029
▁truth	-5030
uration	-5031
▁played	-5032
▁equival	-5033
▁rapidly	-5034
▁violence	-5035
▁primarily	-5036
▁agricultural	-5037
ache	-5038
▁Ret	-5039
▁Free	-5040
▁isol	-5041
▁wire	-5042
▁cloud	-5043
▁Nature	-5044
▁asthma	-5045
inations	-5046
▁conclud	-5047
▁obvious	-5048
▁antibiot	-5049
▁internal	-5050
▁determined	-5051
▁monitoring	-5052
▁sufficient	-5053
isp	-5054
▁ax	-5055
part	-5056
▁Del	-5057
▁Sam	-5058
▁aqu	-5059
idden	-5060
ipped	-5061
▁maps	-5062
▁valu	-5063
▁cardi	-5064
▁daugh	-5065
▁liver	-5066
▁stock	-5067
▁wants	-5068
▁option	-5069
▁sector	-5070
▁Pacific	-5071
▁courses	-5072
▁selected	-5073
▁centuries	-5074
▁represents	-5075
asp	-5076
lim	-5077
▁Ber	-5078
▁Bre	-5079
ester	-5080
ework	-5081
▁Lord	-5082
▁lose	-5083
osophy	-5084
▁Class	-5085
▁voice	-5086
▁waves	-5087
▁maximum	-5088
▁movements	-5089
▁expression	-5090
-4	-5091
II	-5092
▁IN	-5093
▁crop	-5094
▁swim	-5095
▁bones	-5096
▁fewer	-5097
▁train	-5098
ascular	-5099
lements	-5100
▁extent	-5101
▁corresp	-5102
▁mothers	-5103
▁proport	-5104
▁Columbia	-5105
▁intended	-5106
ny	-5107
ael	-5108
ded	-5109
ona	-5110
fall	-5111
iders	-5112
▁elev	-5113
▁synt	-5114
▁Early	-5115
▁Guide	-5116
▁polic	-5117
▁steel	-5118
▁sweet	-5119
ificial	-5120
▁career	-5121
▁colour	-5122
▁inject	-5123
▁Central	-5124
▁massive	-5125
▁Sciences	-5126
ux	-5127
oom	-5128
down	-5129
▁fif	-5130
▁Copy	-5131
▁Land	-5132
▁biod	-5133
cyclop	-5134
▁Henry	-5135
▁index	-5136
▁charge	-5137
▁flight	-5138
▁freedom	-5139
▁leaving	-5140
▁managed	-5141
▁proteins	-5142
▁continuous	-5143
▁literature	-5144
tm	-5145
-19	-5146
nel	-5147
ooth	-5148
ishes	-5149
▁tons	-5150
▁convent	-5151
▁deliver	-5152
▁impacts	-5153
▁Resources	-5154
▁residents	-5155
▁suggested	-5156
▁responsibility	-5157
kes	-5158
▁Oh	-5159
ript	-5160
▁din	-5161
▁syn	-5162
azing	-5163
▁east	-5164
▁Where	-5165
▁faith	-5166
▁horse	-5167
▁minim	-5168
▁fossil	-5169
▁poison	-5170
▁Further	-5171
▁Studies	-5172
▁brother	-5173
▁dioxide	-5174
▁universe	-5175
▁producing	-5176
If	-5177
raw	-5178
well	-5179
▁ble	-5180
▁pun	-5181
ensus	-5182
fered	-5183
▁Supp	-5184
▁Thus	-5185
▁cert	-5186
▁pull	-5187
▁pump	-5188
▁schol	-5189
inating	-5190
▁leader	-5191
▁influen	-5192
▁largely	-5193
▁Michigan	-5194
▁concerns	-5195
▁produces	-5196
▁sustainable	-5197
nut	-5198
ora	-5199
▁186	-5200
▁Ext	-5201
▁Sym	-5202
▁pup	-5203
▁tow	-5204
▁vot	-5205
phone	-5206
normal	-5207
▁apart	-5208
▁party	-5209
▁Design	-5210
▁Jewish	-5211
▁master	-5212
▁shapes	-5213
▁anxiety	-5214
▁creates	-5215
▁valuable	-5216
▁explained	-5217
▁suffering	-5218
▁mathematics	-5219
TM	-5220
ena	-5221
icks	-5222
izer	-5223
rael	-5224
▁Rad	-5225
▁alt	-5226
▁doub	-5227
▁subs	-5228
▁tall	-5229
cribed	-5230
struct	-5231
▁Bible	-5232
▁Quest	-5233
▁cultiv	-5234
▁motion	-5235
▁Climate	-5236
▁foreign	-5237
▁obesity	-5238
▁distingu	-5239
▁phenomen	-5240
▁strategy	-5241
▁naturally	-5242
▁selection	-5243
▁businesses	-5244
▁greenhouse	-5245
▁principles	-5246
alt	-5247
alle	-5248
▁Ter	-5249
pping	-5250
▁acce	-5251
▁dent	-5252
▁epid	-5253
▁reci	-5254
▁calls	-5255
▁compl	-5256
▁dynam	-5257
▁raise	-5258
ropical	-5259
▁string	-5260
▁portion	-5261
▁typical	-5262
▁Language	-5263
▁possibly	-5264
IL	-5265
ube	-5266
vis	-5267
berg	-5268
irds	-5269
▁Ann	-5270
▁Saf	-5271
▁bio	-5272
▁fly	-5273
going	-5274
▁shut	-5275
▁Build	-5276
▁Follow	-5277
▁ancest	-5278
▁habits	-5279
▁secret	-5280
▁starts	-5281
▁stored	-5282
▁calcium	-5283
▁feelings	-5284
▁greatest	-5285
▁intellig	-5286
▁vehicles	-5287
vironments	-5288
▁component	-5289
▁Dictionary	-5290
OU	-5291
gl	-5292
▁kn	-5293
osen	-5294
▁Big	-5295
▁band	-5296
▁fasc	-5297
▁mild	-5298
▁neur	-5299
▁shot	-5300
bestos	-5301
▁sides	-5302
▁capable	-5303
▁offered	-5304
▁western	-5305
▁younger	-5306
▁campaign	-5307
▁diversity	-5308
bon	-5309
osc	-5310
win	-5311
▁27	-5312
eper	-5313
rete	-5314
▁Sea	-5315
ifies	-5316
▁Conn	-5317
▁Play	-5318
▁nurs	-5319
▁sets	-5320
▁vast	-5321
ighter	-5322
▁Group	-5323
▁rural	-5324
iratory	-5325
▁implic	-5326
▁mobile	-5327
▁reached	-5328
▁Virginia	-5329
▁generate	-5330
▁operation	-5331
▁reduction	-5332
▁laboratory	-5333
met	-5334
▁ath	-5335
▁rul	-5336
ested	-5337
▁bank	-5338
▁sight	-5339
▁gender	-5340
▁pounds	-5341
▁Nations	-5342
▁discipl	-5343
▁extract	-5344
▁internet	-5345
▁proposed	-5346
▁recognize	-5347
▁healthcare	-5348
▁experiments	-5349
▁concentration	-5350
othe	-5351
outs	-5352
rich	-5353
vert	-5354
▁Haw	-5355
▁Pet	-5356
▁row	-5357
state	-5358
▁Mont	-5359
▁unus	-5360
▁fract	-5361
▁perman	-5362
▁suffer	-5363
ibilities	-5364
▁Agricult	-5365
▁occurred	-5366
▁purposes	-5367
▁recovery	-5368
▁collected	-5369
▁substance	-5370
▁technical	-5371
▁transmission	-5372
mic	-5373
▁7.	-5374
athy	-5375
iced	-5376
field	-5377
itter	-5378
▁2000	-5379
▁View	-5380
▁neut	-5381
atform	-5382
▁camera	-5383
▁meters	-5384
▁wealth	-5385
▁Disease	-5386
▁figures	-5387
▁Southern	-5388
▁attached	-5389
▁favorite	-5390
▁policies	-5391
▁formation	-5392
▁officials	-5393
▁supported	-5394
▁Government	-5395
▁perspective	-5396
CE	-5397
▁35	-5398
▁Hy	-5399
arsh	-5400
ston	-5401
▁Dan	-5402
throp	-5403
▁Conf	-5404
▁Next	-5405
▁Star	-5406
▁arms	-5407
▁fill	-5408
▁fort	-5409
▁Franc	-5410
▁Plant	-5411
▁stick	-5412
▁circum	-5413
▁houses	-5414
▁stages	-5415
▁drawing	-5416
▁smoking	-5417
▁purchase	-5418
OS	-5419
hand	-5420
reci	-5421
▁Str	-5422
istan	-5423
▁solve	-5424
raction	-5425
▁chapter	-5426
stitution	-5427
▁diagnosed	-5428
▁renewable	-5429
▁controlled	-5430
-8	-5431
CT	-5432
iest	-5433
▁Ste	-5434
utive	-5435
▁Back	-5436
▁Only	-5437
▁mice	-5438
▁shell	-5439
▁Family	-5440
▁lifest	-5441
▁earthqu	-5442
▁Sometimes	-5443
▁expensive	-5444
▁recognized	-5445
▁fundamental	-5446
gu	-5447
”,	-5448
rog	-5449
▁1:	-5450
What	-5451
airy	-5452
rian	-5453
olute	-5454
▁gall	-5455
▁mort	-5456
ulating	-5457
▁Native	-5458
▁babies	-5459
▁breath	-5460
▁cutting	-5461
▁vessels	-5462
▁hydrogen	-5463
▁highlight	-5464
▁sensitive	-5465
78	-5466
bra	-5467
och	-5468
pat	-5469
rus	-5470
▁Att	-5471
▁End	-5472
▁Good	-5473
▁surf	-5474
▁tail	-5475
apping	-5476
▁lungs	-5477
▁metab	-5478
▁worse	-5479
▁Joseph	-5480
▁filled	-5481
▁spaces	-5482
▁Northern	-5483
▁contamin	-5484
▁otherwise	-5485
▁institutions	-5486
pre	-5487
sey	-5488
▁rhy	-5489
attle	-5490
▁immun	-5491
▁label	-5492
▁reader	-5493
▁Richard	-5494
▁Carolina	-5495
▁behaviour	-5496
▁exercises	-5497
▁landscape	-5498
▁environments	-5499
fts	-5500
net	-5501
▁(3	-5502
rite	-5503
▁rub	-5504
▁Such	-5505
▁Type	-5506
▁cats	-5507
▁fold	-5508
▁simpl	-5509
tenance	-5510
▁Martin	-5511
▁Wildlife	-5512
▁revealed	-5513
▁studying	-5514
▁documents	-5515
▁participate	-5516
▁consequences	-5517
den	-5518
what	-5519
▁Dog	-5520
cribe	-5521
▁neck	-5522
ancing	-5523
reland	-5524
▁title	-5525
ossible	-5526
▁settle	-5527
▁sharing	-5528
▁signals	-5529
▁communicate	-5530
▁architecture	-5531
75	-5532
hips	-5533
▁Bur	-5534
▁Cap	-5535
▁coc	-5536
▁tea	-5537
comes	-5538
cules	-5539
▁whom	-5540
▁Creat	-5541
▁taste	-5542
▁tried	-5543
▁handle	-5544
▁nearby	-5545
▁photos	-5546
▁remind	-5547
▁Current	-5548
▁Ireland	-5549
▁physics	-5550
▁traffic	-5551
▁Administ	-5552
▁organisms	-5553
▁transform	-5554
’.	-5555
200	-5556
obe	-5557
zen	-5558
▁OF	-5559
▁Sk	-5560
uted	-5561
▁cup	-5562
▁san	-5563
▁tut	-5564
earch	-5565
level	-5566
▁Does	-5567
▁Gard	-5568
▁pure	-5569
▁Ocean	-5570
▁nerve	-5571
example	-5572
▁agency	-5573
▁broken	-5574
▁seeing	-5575
▁enhance	-5576
▁players	-5577
▁creative	-5578
▁pregnant	-5579
▁dedicated	-5580
▁improving	-5581
▁secondary	-5582
500	-5583
gent	-5584
▁hun	-5585
iance	-5586
inent	-5587
▁Army	-5588
▁Kids	-5589
▁myth	-5590
▁poet	-5591
rowing	-5592
weight	-5593
▁toler	-5594
▁Office	-5595
▁decade	-5596
▁Computer	-5597
▁everyday	-5598
▁interpret	-5599
▁correspond	-5600
▁agriculture	-5601
▁description	-5602
▁Conservation	-5603
EP	-5604
RI	-5605
hop	-5606
▁3,	-5607
▁Cy	-5608
aria	-5609
ndom	-5610
osph	-5611
▁era	-5612
▁pil	-5613
agers	-5614
orous	-5615
▁door	-5616
▁nine	-5617
▁prem	-5618
Americ	-5619
▁bears	-5620
▁Forest	-5621
▁Israel	-5622
▁Source	-5623
▁contem	-5624
▁intake	-5625
▁raised	-5626
▁Network	-5627
▁acceler	-5628
▁accompl	-5629
▁artists	-5630
▁decrease	-5631
▁interview	-5632
▁locations	-5633
▁observations	-5634
-6	-5635
dden	-5636
olve	-5637
▁Ill	-5638
▁aer	-5639
▁flo	-5640
▁Time	-5641
▁diss	-5642
▁goods	-5643
▁units	-5644
▁Author	-5645
▁kilomet	-5646
▁opening	-5647
▁routine	-5648
▁domestic	-5649
▁nitrogen	-5650
▁equivalent	-5651
irt	-5652
van	-5653
▁188	-5654
stone	-5655
▁Chem	-5656
▁Long	-5657
▁Scot	-5658
▁dial	-5659
▁pray	-5660
▁thor	-5661
▁Georg	-5662
▁match	-5663
▁Global	-5664
▁Rights	-5665
▁covers	-5666
▁Despite	-5667
▁coordin	-5668
▁certainly	-5669
▁Prevention	-5670
▁Ox	-5671
....	-5672
burg	-5673
▁Div	-5674
▁Orig	-5675
▁Sign	-5676
▁flag	-5677
▁pool	-5678
asters	-5679
▁Brown	-5680
▁Start	-5681
▁views	-5682
▁disapp	-5683
▁gather	-5684
▁prices	-5685
▁attacks	-5686
▁forests	-5687
▁infrast	-5688
▁supports	-5689
▁describes	-5690
▁appearance	-5691
▁instrument	-5692
een	-5693
ria	-5694
zed	-5695
▁Po	-5696
▁(20	-5697
▁10.	-5698
▁2017	-5699
▁lung	-5700
▁nest	-5701
▁wife	-5702
▁horiz	-5703
▁enable	-5704
▁narrow	-5705
▁coastal	-5706
▁examine	-5707
▁hormone	-5708
▁moisture	-5709
▁repeated	-5710
▁mentioned	-5711
45	-5712
▁26	-5713
aker	-5714
with	-5715
▁Bab	-5716
▁phr	-5717
heric	-5718
organ	-5719
▁Mond	-5720
stream	-5721
ushing	-5722
▁Psych	-5723
▁random	-5724
▁burning	-5725
▁eastern	-5726
▁unknown	-5727
▁electron	-5728
▁Copyright	-5729
▁organized	-5730
nce	-5731
▁8.	-5732
▁du	-5733
rans	-5734
ymph	-5735
▁orb	-5736
▁meal	-5737
▁arter	-5738
▁clust	-5739
▁decay	-5740
▁inhib	-5741
▁photo	-5742
▁satis	-5743
▁engage	-5744
▁sudden	-5745
▁Instead	-5746
▁decline	-5747
▁drought	-5748
▁minerals	-5749
▁concerned	-5750
▁manufacturing	-5751
alks	-5752
irty	-5753
▁Det	-5754
▁vit	-5755
▁Cult	-5756
▁cris	-5757
▁knew	-5758
cience	-5759
▁Frank	-5760
▁Liter	-5761
▁Smith	-5762
▁dream	-5763
▁happy	-5764
▁Though	-5765
▁afford	-5766
▁flying	-5767
▁rivers	-5768
▁circuit	-5769
TS	-5770
ato	-5771
eer	-5772
how	-5773
ola	-5774
ohyd	-5775
▁Tor	-5776
ctive	-5777
▁Online	-5778
▁budget	-5779
▁listed	-5780
▁Company	-5781
▁journey	-5782
▁comments	-5783
▁regional	-5784
▁vocabulary	-5785
▁governments	-5786
▁inflammation	-5787
PV	-5788
olf	-5789
rob	-5790
▁29	-5791
ifts	-5792
roat	-5793
umes	-5794
▁Did	-5795
▁Tit	-5796
▁Yet	-5797
▁dys	-5798
▁fib	-5799
▁fle	-5800
ented	-5801
atever	-5802
ipping	-5803
▁Peter	-5804
▁chief	-5805
▁overl	-5806
▁turns	-5807
▁veter	-5808
▁Agency	-5809
▁unless	-5810
▁Director	-5811
▁appeared	-5812
▁finished	-5813
▁satellite	-5814
▁difficulty	-5815
▁increasingly	-5816
HS	-5817
RC	-5818
ya	-5819
car	-5820
onic	-5821
pass	-5822
▁500	-5823
▁bot	-5824
▁neu	-5825
▁wid	-5826
▁Date	-5827
▁Court	-5828
▁advoc	-5829
▁compr	-5830
▁drain	-5831
▁county	-5832
▁marked	-5833
▁plenty	-5834
▁therap	-5835
▁diverse	-5836
▁feeding	-5837
▁substant	-5838
▁foundation	-5839
1)	-5840
HO	-5841
which	-5842
▁Open	-5843
▁Vict	-5844
▁Word	-5845
▁ends	-5846
▁felt	-5847
▁grew	-5848
tering	-5849
▁Paris	-5850
▁chest	-5851
▁motiv	-5852
▁plate	-5853
▁Change	-5854
▁Charles	-5855
▁despite	-5856
▁facilit	-5857
▁facility	-5858
▁speaking	-5859
▁Laboratory	-5860
▁explanation	-5861
▁respiratory	-5862
mes	-5863
ups	-5864
gans	-5865
▁Fig	-5866
▁Pan	-5867
▁Set	-5868
▁Tur	-5869
thrit	-5870
▁Face	-5871
▁sick	-5872
▁Solar	-5873
▁rocks	-5874
▁scene	-5875
▁Arctic	-5876
▁Reading	-5877
▁Special	-5878
▁launched	-5879
▁magnetic	-5880
▁remained	-5881
▁visitors	-5882
▁consumers	-5883
▁composition	-5884
▁conventional	-5885
inf	-5886
pal	-5887
▁Ec	-5888
iana	-5889
mers	-5890
word	-5891
▁err	-5892
▁Kore	-5893
▁aims	-5894
▁bear	-5895
▁cart	-5896
▁gluc	-5897
▁paid	-5898
▁scan	-5899
▁giant	-5900
▁tells	-5901
▁crisis	-5902
▁stands	-5903
▁Mississ	-5904
▁holiday	-5905
▁tissues	-5906
▁astronom	-5907
▁external	-5908
▁neighbor	-5909
▁molecules	-5910
▁facilities	-5911
▁professionals	-5912
mia	-5913
indu	-5914
ippi	-5915
ying	-5916
▁sou	-5917
▁Alex	-5918
▁Frid	-5919
▁bees	-5920
▁jump	-5921
▁weap	-5922
inking	-5923
▁Coast	-5924
▁tumor	-5925
▁Safety	-5926
▁archae	-5927
▁closer	-5928
▁Federal	-5929
▁Introdu	-5930
▁adopted	-5931
▁minimum	-5932
▁thyroid	-5933
▁district	-5934
▁networks	-5935
▁allergies	-5936
▁researcher	-5937
▁supplement	-5938
▁infrastructure	-5939
umin	-5940
aming	-5941
ittle	-5942
▁Down	-5943
▁Math	-5944
▁Ident	-5945
▁laser	-5946
▁noise	-5947
▁theme	-5948
clusion	-5949
ributes	-5950
▁decide	-5951
▁pestic	-5952
▁Michael	-5953
▁advance	-5954
▁appoint	-5955
▁battery	-5956
▁damaged	-5957
▁insulin	-5958
▁opposite	-5959
▁standing	-5960
▁sunlight	-5961
▁Wikipedia	-5962
▁university	-5963
▁instruments	-5964
▁maintenance	-5965
IDS	-5966
athe	-5967
▁300	-5968
▁Lin	-5969
▁Rob	-5970
▁fell	-5971
▁wors	-5972
▁Works	-5973
▁medium	-5974
▁shaped	-5975
▁trials	-5976
▁appreci	-5977
▁agencies	-5978
▁supplies	-5979
cyclopedia	-5980
▁behaviors	-5981
▁indicates	-5982
▁spiritual	-5983
▁procedures	-5984
▁competition	-5985
▁ingredients	-5986
htm	-5987
lets	-5988
▁Tim	-5989
▁rein	-5990
▁shad	-5991
▁chrom	-5992
▁dates	-5993
▁sharp	-5994
ication	-5995
▁bridge	-5996
▁serving	-5997
▁warning	-5998
▁habitats	-5999
▁variable	-6000
▁announced	-6001
▁artificial	-6002
▁generations	-6003
gr	-6004
ait	-6005
isk	-6006
▁MS	-6007
▁cm	-6008
ulty	-6009
▁Pop	-6010
▁cos	-6011
▁nor	-6012
asure	-6013
cture	-6014
▁Fort	-6015
▁Irish	-6016
▁Scott	-6017
▁Times	-6018
▁inner	-6019
▁loved	-6020
▁usage	-6021
▁circle	-6022
▁Vitamin	-6023
▁crucial	-6024
▁missing	-6025
▁updated	-6026
▁village	-6027
▁Heritage	-6028
▁carefully	-6029
RA	-6030
alls	-6031
▁Try	-6032
▁gap	-6033
▁mac	-6034
ograp	-6035
posal	-6036
riage	-6037
▁Cath	-6038
▁Corn	-6039
▁Moon	-6040
▁Page	-6041
▁Wood	-6042
▁purs	-6043
luding	-6044
▁abund	-6045
▁unlike	-6046
position	-6047
▁funding	-6048
▁putting	-6049
▁absolute	-6050
▁copyright	-6051
▁investment	-6052
▁Mississippi	-6053
▁successfully	-6054
5%	-6055
▁Jo	-6056
alse	-6057
aped	-6058
▁Key	-6059
▁Nut	-6060
▁cham	-6061
▁meth	-6062
orders	-6063
▁Pract	-6064
▁newsp	-6065
▁plays	-6066
▁truly	-6067
itative	-6068
▁Monday	-6069
▁limits	-6070
▁rising	-6071
▁secure	-6072
▁heating	-6073
▁justice	-6074
▁nervous	-6075
▁painting	-6076
▁platform	-6077
▁educators	-6078
▁mechanism	-6079
-18	-6080
ras	-6081
inch	-6082
mega	-6083
▁Low	-6084
▁cav	-6085
▁Stat	-6086
▁adap	-6087
▁alle	-6088
▁crew	-6089
▁hole	-6090
▁shop	-6091
▁tube	-6092
alysis	-6093
▁valid	-6094
▁corner	-6095
▁flower	-6096
▁forced	-6097
▁minute	-6098
▁smooth	-6099
▁Georgia	-6100
▁derived	-6101
▁accuracy	-6102
▁asbestos	-6103
▁clothing	-6104
▁disaster	-6105
▁evaluate	-6106
▁religion	-6107
▁reserved	-6108
▁sections	-6109
▁remaining	-6110
LA	-6111
ey	-6112
eli	-6113
run	-6114
▁Ice	-6115
▁sod	-6116
▁unc	-6117
heast	-6118
iated	-6119
orter	-6120
under	-6121
▁2016	-6122
▁Head	-6123
▁edge	-6124
▁fest	-6125
▁lands	-6126
▁manip	-6127
▁skill	-6128
▁expans	-6129
▁outbre	-6130
▁writer	-6131
▁viruses	-6132
▁outcomes	-6133
▁lifestyle	-6134
▁accessible	-6135
▁assistance	-6136
▁instructions	-6137
uke	-6138
▁185	-6139
▁Ken	-6140
▁Mag	-6141
▁ran	-6142
alian	-6143
being	-6144
ingly	-6145
orrow	-6146
▁Penn	-6147
▁Rock	-6148
▁adds	-6149
▁boys	-6150
▁fung	-6151
▁trip	-6152
▁wasn	-6153
▁ahead	-6154
▁honor	-6155
▁worry	-6156
▁Access	-6157
▁listen	-6158
▁cultures	-6159
▁treating	-6160
▁supporting	-6161
▁demonstrate	-6162
▁necessarily	-6163
MS	-6164
bi	-6165
-12	-6166
nic	-6167
riz	-6168
eria	-6169
▁Ask	-6170
▁Ins	-6171
▁Wed	-6172
▁mit	-6173
inson	-6174
oping	-6175
▁incl	-6176
▁nose	-6177
▁Young	-6178
▁depos	-6179
▁polar	-6180
▁Friday	-6181
▁kidney	-6182
▁volcan	-6183
▁amazing	-6184
▁females	-6185
▁focuses	-6186
▁trouble	-6187
▁unusual	-6188
▁leadership	-6189
/20	-6190
▁IP	-6191
▁Ut	-6192
atal	-6193
azon	-6194
▁USA	-6195
azine	-6196
rooms	-6197
rovers	-6198
▁cough	-6199
▁knows	-6200
ocratic	-6201
▁Centre	-6202
▁neighb	-6203
▁organs	-6204
▁remote	-6205
▁switch	-6206
▁gravity	-6207
▁circumst	-6208
▁collaboration	-6209
US	-6210
add	-6211
edu	-6212
last	-6213
mary	-6214
otes	-6215
▁191	-6216
▁Bul	-6217
▁cod	-6218
▁hem	-6219
abric	-6220
eters	-6221
scale	-6222
▁Camp	-6223
▁boat	-6224
▁enem	-6225
▁feat	-6226
▁gram	-6227
rating	-6228
▁adequ	-6229
▁chart	-6230
▁disch	-6231
▁Report	-6232
▁follows	-6233
▁roughly	-6234
▁sentences	-6235
▁possibility	-6236
HA	-6237
▁»	-6238
▁$1	-6239
▁EU	-6240
aked	-6241
▁1990	-6242
▁Chic	-6243
▁Fund	-6244
▁Sund	-6245
▁ille	-6246
▁Among	-6247
▁chain	-6248
▁immig	-6249
▁meals	-6250
▁Method	-6251
▁papers	-6252
▁repair	-6253
▁Russian	-6254
▁centers	-6255
▁District	-6256
▁compounds	-6257
▁installed	-6258
▁programming	-6259
?”	-6260
lar	-6261
inic	-6262
yles	-6263
▁Emp	-6264
▁mer	-6265
elled	-6266
etime	-6267
urric	-6268
▁Zeal	-6269
▁item	-6270
ivered	-6271
▁Trust	-6272
▁award	-6273
▁breed	-6274
▁orbit	-6275
▁recon	-6276
▁split	-6277
igenous	-6278
▁Valley	-6279
▁Victor	-6280
▁closed	-6281
▁portra	-6282
▁retain	-6283
▁senior	-6284
▁islands	-6285
▁abnormal	-6286
▁extended	-6287
▁returned	-6288
26	-6289
rd	-6290
▁Ap	-6291
road	-6292
▁ped	-6293
point	-6294
▁Hall	-6295
▁Spain	-6296
thritis	-6297
▁assemb	-6298
▁unable	-6299
▁Digital	-6300
▁Hospital	-6301
▁generated	-6302
▁vulnerable	-6303
▁interaction	-6304
▁interactive	-6305
iox	-6306
war	-6307
brid	-6308
teen	-6309
tles	-6310
icate	-6311
orith	-6312
▁Coll	-6313
▁Wall	-6314
▁firm	-6315
▁runs	-6316
▁sell	-6317
▁vote	-6318
▁chick	-6319
▁finds	-6320
▁heads	-6321
▁holds	-6322
angered	-6323
▁Econom	-6324
▁column	-6325
▁lights	-6326
▁temple	-6327
▁Finally	-6328
▁dealing	-6329
▁Scotland	-6330
▁machines	-6331
▁intensity	-6332
▁physician	-6333
▁impossible	-6334
▁preventing	-6335
▁revolution	-6336
▁complicated	-6337
OL	-6338
amb	-6339
prof	-6340
▁Gar	-6341
▁suc	-6342
orses	-6343
▁Call	-6344
▁Form	-6345
▁narr	-6346
ashion	-6347
▁Avoid	-6348
▁Italy	-6349
▁Place	-6350
▁Royal	-6351
▁error	-6352
▁falls	-6353
▁hydro	-6354
certain	-6355
raining	-6356
▁chosen	-6357
▁distur	-6358
▁Zealand	-6359
▁printed	-6360
▁Colorado	-6361
▁daughter	-6362
▁obtained	-6363
▁replaced	-6364
▁spending	-6365
▁struggle	-6366
▁delivered	-6367
▁framework	-6368
▁scientist	-6369
▁comparison	-6370
Ph	-6371
hi	-6372
zil	-6373
▁2:	-6374
▁Sa	-6375
They	-6376
pted	-6377
▁400	-6378
▁Cut	-6379
▁Jud	-6380
▁Obs	-6381
allel	-6382
itely	-6383
▁Jeff	-6384
▁acts	-6385
▁pair	-6386
▁rail	-6387
▁spin	-6388
▁trad	-6389
stract	-6390
▁Antar	-6391
▁Super	-6392
▁chann	-6393
▁layers	-6394
▁opened	-6395
▁window	-6396
elescope	-6397
▁compost	-6398
▁electro	-6399
▁greatly	-6400
▁branches	-6401
▁fighting	-6402
▁offering	-6403
▁existence	-6404
▁insurance	-6405
▁integrated	-6406
▁destruction	-6407
▁maintaining	-6408
▁photographs	-6409
no	-6410
adel	-6411
agon	-6412
▁Gal	-6413
▁arts	-6414
▁bath	-6415
▁blow	-6416
▁crow	-6417
▁mode	-6418
▁zone	-6419
uation	-6420
ursday	-6421
▁Three	-6422
▁decor	-6423
▁entry	-6424
▁inher	-6425
▁teens	-6426
▁attend	-6427
▁beliefs	-6428
▁founded	-6429
▁carbohyd	-6430
▁concrete	-6431
▁modified	-6432
▁reliable	-6433
▁sequence	-6434
▁discussed	-6435
▁conversation	-6436
dis	-6437
eck	-6438
▁32	-6439
asty	-6440
band	-6441
otic	-6442
▁150	-6443
▁187	-6444
▁Doc	-6445
▁pit	-6446
pread	-6447
▁2015	-6448
▁Ohio	-6449
▁plus	-6450
▁rice	-6451
▁tank	-6452
ounter	-6453
▁fires	-6454
▁flash	-6455
▁stuff	-6456
▁rarely	-6457
▁thanks	-6458
▁fishing	-6459
▁trained	-6460
▁victims	-6461
▁audience	-6462
▁compound	-6463
▁historic	-6464
▁provider	-6465
rimination	-6466
▁destroyed	-6467
▁challenging	-6468
-7	-6469
35	-6470
HD	-6471
rep	-6472
tts	-6473
▁od	-6474
ears	-6475
ects	-6476
eers	-6477
ogue	-6478
▁184	-6479
▁Gulf	-6480
▁clay	-6481
▁dairy	-6482
▁regul	-6483
▁sheet	-6484
essions	-6485
▁Commit	-6486
▁hunting	-6487
idespread	-6488
▁Remember	-6489
▁aircraft	-6490
▁apparent	-6491
▁exchange	-6492
▁hypothes	-6493
▁thousand	-6494
▁Treatment	-6495
▁authority	-6496
▁celebrate	-6497
▁expressed	-6498
▁principle	-6499
▁receiving	-6500
fortunately	-6501
▁beneficial	-6502
▁categories	-6503
▁conference	-6504
▁exploration	-6505
''	-6506
SS	-6507
gov	-6508
inet	-6509
▁Eth	-6510
adder	-6511
angle	-6512
otton	-6513
▁1970	-6514
▁Arab	-6515
▁Budd	-6516
▁cord	-6517
▁lies	-6518
▁outl	-6519
▁trib	-6520
achuse	-6521
earing	-6522
▁Santa	-6523
▁grows	-6524
▁maybe	-6525
▁perce	-6526
▁surve	-6527
▁forget	-6528
▁remark	-6529
▁reserv	-6530
▁robots	-6531
▁Chapter	-6532
▁butterf	-6533
▁session	-6534
▁Facebook	-6535
▁Thursday	-6536
▁carrying	-6537
▁learners	-6538
▁particle	-6539
▁planting	-6540
▁batteries	-6541
▁protecting	-6542
▁antibiotics	-6543
▁4,	-6544
▁fu	-6545
▁py	-6546
phia	-6547
vard	-6548
irect	-6549
ridge	-6550
using	-6551
▁Mill	-6552
▁Sing	-6553
▁wish	-6554
▁Islam	-6555
▁acids	-6556
▁Chicago	-6557
▁Windows	-6558
▁partner	-6559
achusetts	-6560
▁algorith	-6561
▁percentage	-6562
bul	-6563
▁TV	-6564
body	-6565
door	-6566
neys	-6567
spec	-6568
▁Dru	-6569
▁Rom	-6570
▁Sus	-6571
There	-6572
acent	-6573
itals	-6574
plant	-6575
▁Exam	-6576
▁Mean	-6577
▁army	-6578
▁gone	-6579
ellect	-6580
icious	-6581
▁Micro	-6582
▁accum	-6583
▁yield	-6584
▁artist	-6585
▁brings	-6586
▁orient	-6587
▁stated	-6588
▁twenty	-6589
▁dollars	-6590
▁glucose	-6591
▁microsc	-6592
▁accident	-6593
▁captured	-6594
▁division	-6595
▁chemistry	-6596
▁widespread	-6597
▁Massachusetts	-6598
▁Administration	-6599
▁Gr	-6600
flow	-6601
liam	-6602
ucky	-6603
▁Men	-6604
▁raw	-6605
eries	-6606
▁aged	-6607
▁lake	-6608
▁rely	-6609
anging	-6610
▁Point	-6611
▁uncom	-6612
iration	-6613
▁Street	-6614
▁Sunday	-6615
▁button	-6616
▁candid	-6617
▁joined	-6618
▁launch	-6619
▁throat	-6620
▁biology	-6621
▁cooking	-6622
▁reduces	-6623
▁seconds	-6624
▁argument	-6625
▁frequent	-6626
▁restrict	-6627
ifications	-6628
▁estimates	-6629
▁involving	-6630
▁medicines	-6631
▁evaluation	-6632
▁substances	-6633
▁constructed	-6634
▁improvement	-6635
▁legislation	-6636
4)	-6637
LE	-6638
You	-6639
ita	-6640
rey	-6641
▁ru	-6642
utch	-6643
▁lin	-6644
▁mur	-6645
igare	-6646
▁2005	-6647
▁Pass	-6648
▁Defin	-6649
▁crack	-6650
▁marks	-6651
▁Brazil	-6652
▁Shakes	-6653
▁athlet	-6654
▁claims	-6655
▁formal	-6656
▁geomet	-6657
▁posted	-6658
adelphia	-6659
▁Biology	-6660
▁accepted	-6661
▁settings	-6662
▁exploring	-6663
▁immediate	-6664
▁reactions	-6665
▁underlying	-6666
▁fascinating	-6667
▁circumstances	-6668
▁)	-6669
ori	-6670
▁31	-6671
ague	-6672
ault	-6673
dule	-6674
rays	-6675
▁Den	-6676
▁tro	-6677
▁vel	-6678
▁Area	-6679
▁Tenn	-6680
▁zero	-6681
▁Clean	-6682
▁Heart	-6683
▁fiber	-6684
▁mixed	-6685
▁relax	-6686
▁teams	-6687
▁Russia	-6688
▁Thanks	-6689
▁caught	-6690
▁spinal	-6691
▁compare	-6692
▁cleaning	-6693
▁occasion	-6694
▁tropical	-6695
▁mountains	-6696
▁transition	-6697
▁represented	-6698
ao	-6699
▁?	-6700
awn	-6701
hea	-6702
rag	-6703
esis	-6704
▁Mer	-6705
peare	-6706
▁Mult	-6707
▁furn	-6708
▁Media	-6709
▁shift	-6710
▁debate	-6711
▁deeper	-6712
▁married	-6713
▁persist	-6714
▁precise	-6715
▁subsequ	-6716
▁Catholic	-6717
▁achieved	-6718
▁approved	-6719
▁exciting	-6720
▁stronger	-6721
▁surfaces	-6722
▁expansion	-6723
▁ourselves	-6724
▁controvers	-6725
▁distributed	-6726
▁transportation	-6727
22	-6728
BS	-6729
uh	-6730
oted	-6731
▁Equ	-6732
avery	-6733
inant	-6734
▁2006	-6735
▁Sand	-6736
▁Vide	-6737
▁join	-6738
▁Being	-6739
▁Saint	-6740
▁celeb	-6741
▁honey	-6742
▁irrit	-6743
▁pharm	-6744
▁sport	-6745
▁Survey	-6746
▁fabric	-6747
▁hidden	-6748
▁issued	-6749
▁nations	-6750
ovascular	-6751
▁Symptoms	-6752
▁resident	-6753
▁Community	-6754
▁molecular	-6755
▁permanent	-6756
▁providers	-6757
▁consistent	-6758
▁resolution	-6759
▁supplements	-6760
hav	-6761
wan	-6762
oven	-6763
reed	-6764
▁Adv	-6765
▁Age	-6766
▁Bus	-6767
▁Non	-6768
▁Sat	-6769
▁eru	-6770
heets	-6771
idity	-6772
osion	-6773
ureau	-6774
▁Blue	-6775
▁Cast	-6776
▁Lead	-6777
▁Pers	-6778
▁mere	-6779
▁prev	-6780
▁puzz	-6781
itness	-6782
▁Hawai	-6783
▁cryst	-6784
▁fever	-6785
inction	-6786
▁phones	-6787
▁capture	-6788
▁careful	-6789
▁holding	-6790
▁engaging	-6791
▁feedback	-6792
▁messages	-6793
▁contained	-6794
▁identifying	-6795
▁biodiversity	-6796
▁recommendations	-6797
DP	-6798
oli	-6799
kins	-6800
ulpt	-6801
▁180	-6802
anged	-6803
stood	-6804
▁Arts	-6805
▁Hill	-6806
▁scar	-6807
▁Angel	-6808
▁craft	-6809
▁towns	-6810
▁traum	-6811
liament	-6812
▁Amazon	-6813
▁curren	-6814
▁police	-6815
▁relief	-6816
▁transp	-6817
▁invented	-6818
▁presents	-6819
▁happening	-6820
▁Shakespeare	-6821
▁implications	-6822
hyd	-6823
nee	-6824
oir	-6825
▁Mo	-6826
illa	-6827
olph	-6828
orig	-6829
rust	-6830
such	-6831
▁tom	-6832
anges	-6833
▁grid	-6834
▁hero	-6835
▁mail	-6836
ixture	-6837
▁Board	-6838
▁brows	-6839
▁imper	-6840
▁males	-6841
▁neuro	-6842
▁Little	-6843
▁filter	-6844
▁galaxy	-6845
▁reveal	-6846
otherapy	-6847
▁Islands	-6848
▁healing	-6849
▁mineral	-6850
▁Teachers	-6851
▁Reference	-6852
▁responses	-6853
▁Philadelphia	-6854
▁universities	-6855
▁implementation	-6856
99	-6857
Al	-6858
IP	-6859
tra	-6860
▁Ep	-6861
bert	-6862
▁boy	-6863
ivery	-6864
print	-6865
while	-6866
▁Rome	-6867
▁Tool	-6868
▁pets	-6869
▁spok	-6870
▁swit	-6871
nesday	-6872
▁Which	-6873
▁inhab	-6874
▁prove	-6875
▁Unlike	-6876
▁autism	-6877
▁escape	-6878
▁hazard	-6879
▁theore	-6880
▁tumors	-6881
▁neurons	-6882
▁persons	-6883
▁Security	-6884
▁inspired	-6885
▁whatever	-6886
▁Committee	-6887
▁excessive	-6888
▁earthquake	-6889
▁publication	-6890
▁Constitution	-6891
▁Encyclopedia	-6892
▁Unfortunately	-6893
ca	-6894
ka	-6895
▁%	-6896
but	-6897
exp	-6898
rub	-6899
▁af	-6900
ette	-6901
▁gro	-6902
ioxid	-6903
▁biom	-6904
isters	-6905
itudes	-6906
▁Cross	-6907
▁fixed	-6908
▁moral	-6909
▁paras	-6910
▁surge	-6911
▁Search	-6912
▁orange	-6913
▁stable	-6914
American	-6915
▁Perhaps	-6916
▁adapted	-6917
▁dramatic	-6918
▁eliminate	-6919
▁varieties	-6920
▁Revolution	-6921
▁phenomenon	-6922
▁threatened	-6923
▁Additionally	-6924
▁effectiveness	-6925
Ar	-6926
ENT	-6927
ada	-6928
ieve	-6929
▁gum	-6930
cript	-6931
eless	-6932
lings	-6933
▁Card	-6934
▁cure	-6935
▁hosp	-6936
▁rect	-6937
▁ring	-6938
▁seat	-6939
called	-6940
▁Month	-6941
▁gases	-6942
▁optim	-6943
▁exists	-6944
▁facing	-6945
▁fisher	-6946
▁density	-6947
▁mercury	-6948
▁opinion	-6949
▁request	-6950
▁threats	-6951
including	-6952
▁Atlantic	-6953
▁consumer	-6954
▁transmit	-6955
▁permission	-6956
▁vegetation	-6957
▁Agriculture	-6958
▁connections	-6959
▁independence	-6960
▁interactions	-6961
32	-6962
36	-6963
Un	-6964
rin	-6965
▁DO	-6966
▁Kh	-6967
acco	-6968
▁III	-6969
▁Ref	-6970
oston	-6971
▁Poly	-6972
▁pipe	-6973
▁stre	-6974
inding	-6975
▁owner	-6976
itivity	-6977
▁horses	-6978
▁player	-6979
▁silver	-6980
▁Systems	-6981
▁ceremon	-6982
▁engaged	-6983
▁fashion	-6984
▁mammals	-6985
▁operate	-6986
▁diameter	-6987
▁galaxies	-6988
▁scholars	-6989
▁somewhat	-6990
▁Wednesday	-6991
▁functional	-6992
▁participation	-6993
su	-6994
hist	-6995
oral	-6996
ouds	-6997
▁Bir	-6998
▁Mad	-6999
▁Mot	-7000
andon	-7001
iform	-7002
▁Cell	-7003
▁gast	-7004
▁pine	-7005
▁sole	-7006
nesota	-7007
rolled	-7008
▁Light	-7009
▁Small	-7010
▁alive	-7011
▁beans	-7012
▁outer	-7013
▁spots	-7014
▁asking	-7015
▁beings	-7016
▁define	-7017
▁extend	-7018
▁intest	-7019
▁reform	-7020
▁serves	-7021
▁designs	-7022
▁restore	-7023
▁sitting	-7024
▁customers	-7025
▁employment	-7026
%.	-7027
38	-7028
CD	-7029
pet	-7030
▁Py	-7031
anes	-7032
aska	-7033
chen	-7034
orph	-7035
▁Put	-7036
▁Way	-7037
▁ske	-7038
ceans	-7039
ecess	-7040
icals	-7041
isdom	-7042
▁Fire	-7043
▁Fish	-7044
▁poem	-7045
▁prey	-7046
ometer	-7047
▁lymph	-7048
▁moves	-7049
▁movie	-7050
▁spray	-7051
▁Spring	-7052
▁server	-7053
ployment	-7054
▁Contact	-7055
▁ongoing	-7056
▁Division	-7057
▁delivery	-7058
▁estimate	-7059
▁examined	-7060
▁overview	-7061
▁parallel	-7062
▁supposed	-7063
▁indicated	-7064
▁spacecraft	-7065
▁complications	-7066
racy	-7067
tage	-7068
▁FDA	-7069
▁Imm	-7070
▁Tri	-7071
▁gun	-7072
▁nob	-7073
▁rid	-7074
arant	-7075
ashes	-7076
eenth	-7077
ontal	-7078
riers	-7079
▁2014	-7080
▁cann	-7081
▁debt	-7082
▁desc	-7083
▁gums	-7084
▁mand	-7085
▁nice	-7086
lights	-7087
▁align	-7088
▁dance	-7089
▁shore	-7090
▁usual	-7091
idering	-7092
▁adoles	-7093
▁drinks	-7094
▁infect	-7095
▁script	-7096
▁Century	-7097
▁cancers	-7098
▁edition	-7099
▁evolved	-7100
▁musical	-7101
▁passing	-7102
▁quantum	-7103
▁Francisc	-7104
▁Services	-7105
▁annually	-7106
▁expanded	-7107
▁printing	-7108
▁affecting	-7109
▁conscious	-7110
▁container	-7111
▁vegetable	-7112
▁ultimately	-7113
▁significance	-7114
?"	-7115
pm	-7116
▁~	-7117
ami	-7118
cip	-7119
greg	-7120
then	-7121
▁Cost	-7122
▁Four	-7123
▁Jews	-7124
▁Kent	-7125
▁laid	-7126
▁memb	-7127
icians	-7128
ourage	-7129
▁acres	-7130
▁ended	-7131
▁recre	-7132
▁ships	-7133
athered	-7134
▁danger	-7135
▁desire	-7136
▁incred	-7137
▁mining	-7138
▁phosph	-7139
▁pupils	-7140
▁Station	-7141
▁Without	-7142
▁arrange	-7143
▁enables	-7144
▁Clinical	-7145
▁spectrum	-7146
▁philosophy	-7147
▁measurements	-7148
▁psychological	-7149
As	-7150
top	-7151
▁AM	-7152
▁ov	-7153
gers	-7154
lymp	-7155
uses	-7156
▁Bal	-7157
▁Far	-7158
▁Tom	-7159
▁tip	-7160
▁ton	-7161
gical	-7162
ricts	-7163
▁Fair	-7164
▁Text	-7165
▁alph	-7166
▁pron	-7167
mentia	-7168
▁Asian	-7169
▁Model	-7170
▁Sever	-7171
▁aging	-7172
▁bread	-7173
▁delay	-7174
▁explo	-7175
▁score	-7176
▁snake	-7177
▁Andrew	-7178
▁Empire	-7179
▁Missou	-7180
▁cotton	-7181
▁editor	-7182
▁fairly	-7183
▁funded	-7184
▁latter	-7185
▁undert	-7186
▁recover	-7187
plication	-7188
▁breeding	-7189
▁addiction	-7190
▁committed	-7191
▁intellect	-7192
▁prescribed	-7193
▁demonstrated	-7194
▁intelligence	-7195
24	-7196
kl	-7197
ua	-7198
▁PM	-7199
gien	-7200
oric	-7201
rize	-7202
writ	-7203
▁(1)	-7204
▁Pen	-7205
▁eld	-7206
▁rit	-7207
▁spr	-7208
▁sus	-7209
▁ven	-7210
produ	-7211
▁2004	-7212
▁Gall	-7213
▁dose	-7214
▁rank	-7215
▁resc	-7216
▁wait	-7217
▁false	-7218
▁plane	-7219
century	-7220
▁Daniel	-7221
▁bigger	-7222
▁border	-7223
▁pollut	-7224
▁proven	-7225
▁stores	-7226
▁Italian	-7227
▁gardens	-7228
▁targets	-7229
▁trigger	-7230
▁willing	-7231
▁emotions	-7232
▁guidance	-7233
▁lifetime	-7234
▁relation	-7235
▁swimming	-7236
▁vaccines	-7237
▁directions	-7238
▁mechanical	-7239
▁celebration	-7240
▁regulations	-7241
▁experiencing	-7242
▁discrimination	-7243
3)	-7244
An	-7245
la	-7246
ima	-7247
itt	-7248
abil	-7249
cher	-7250
play	-7251
rene	-7252
▁Dar	-7253
▁Nov	-7254
▁bag	-7255
▁fav	-7256
▁Init	-7257
▁Talk	-7258
agraph	-7259
estone	-7260
uality	-7261
ustain	-7262
▁Never	-7263
▁Olymp	-7264
▁drawn	-7265
▁flows	-7266
▁forth	-7267
▁worst	-7268
▁Boston	-7269
▁Garden	-7270
▁Origin	-7271
▁beauty	-7272
▁blocks	-7273
▁oldest	-7274
▁regist	-7275
▁Connect	-7276
▁parties	-7277
▁ranging	-7278
▁removal	-7279
▁suscept	-7280
▁writers	-7281
struction	-7282
▁entirely	-7283
▁interface	-7284
▁occurring	-7285
▁department	-7286
▁industries	-7287
▁objectives	-7288
▁Engineering	-7289
▁association	-7290
▁underground	-7291
▁difficulties	-7292
34	-7293
66	-7294
92	-7295
eor	-7296
oln	-7297
▁Rh	-7298
▁vs	-7299
uild	-7300
▁rig	-7301
▁caps	-7302
▁rays	-7303
▁Image	-7304
▁eleph	-7305
▁holes	-7306
▁route	-7307
▁Having	-7308
▁Tennes	-7309
▁sculpt	-7310
▁Univers	-7311
▁anywhere	-7312
▁bringing	-7313
▁covering	-7314
▁overcome	-7315
▁resulted	-7316
▁Healthwise	-7317
▁Protection	-7318
▁essentially	-7319
▁mathematical	-7320
95	-7321
PI	-7322
mm	-7323
▁·	-7324
How	-7325
▁BC	-7326
▁ID	-7327
foot	-7328
mail	-7329
olit	-7330
▁Ess	-7331
▁Ver	-7332
▁amb	-7333
▁dut	-7334
▁sug	-7335
gence	-7336
peror	-7337
regon	-7338
▁Cred	-7339
▁bite	-7340
▁crim	-7341
▁drag	-7342
▁ment	-7343
▁tone	-7344
health	-7345
incoln	-7346
rizona	-7347
▁1,000	-7348
▁angle	-7349
▁mouse	-7350
▁newly	-7351
▁songs	-7352
▁centre	-7353
▁lowest	-7354
▁microb	-7355
▁prison	-7356
▁scheme	-7357
▁abandon	-7358
▁cooling	-7359
▁realize	-7360
▁antioxid	-7361
▁focusing	-7362
▁mosquito	-7363
▁Minnesota	-7364
▁interests	-7365
▁measuring	-7366
▁recycling	-7367
▁variables	-7368
▁celebrated	-7369
▁neighborhood	-7370
He	-7371
dr	-7372
anc	-7373
ano	-7374
spe	-7375
▁36	-7376
▁Ro	-7377
eras	-7378
rous	-7379
▁Aqu	-7380
▁Dif	-7381
aired	-7382
amins	-7383
ensed	-7384
▁Gree	-7385
▁gray	-7386
▁libr	-7387
▁Grand	-7388
▁aimed	-7389
▁blind	-7390
▁keeps	-7391
▁stead	-7392
▁Effect	-7393
▁Select	-7394
▁advent	-7395
▁conven	-7396
▁harder	-7397
▁preval	-7398
▁visits	-7399
▁Harvard	-7400
▁Whether	-7401
▁distant	-7402
▁farming	-7403
▁observe	-7404
▁seeking	-7405
▁succeed	-7406
▁turning	-7407
▁wearing	-7408
▁invasive	-7409
▁marriage	-7410
▁territory	-7411
▁encouraged	-7412
▁fertilizer	-7413
21	-7414
EA	-7415
EO	-7416
IA	-7417
ki	-7418
▁65	-7419
▁Lu	-7420
zyme	-7421
▁AND	-7422
▁Sil	-7423
▁Wil	-7424
▁fed	-7425
abled	-7426
dered	-7427
liest	-7428
otype	-7429
▁earn	-7430
▁sacr	-7431
▁tack	-7432
▁wash	-7433
▁atoms	-7434
ersonal	-7435
▁tables	-7436
▁elected	-7437
▁imaging	-7438
▁painted	-7439
▁planted	-7440
▁quarter	-7441
▁literacy	-7442
▁reaching	-7443
▁administr	-7444
▁gradually	-7445
▁listening	-7446
▁literally	-7447
▁confidence	-7448
▁deficiency	-7449
▁functioning	-7450
▁contemporary	-7451
▁administration	-7452
▁identification	-7453
OW	-7454
ye	-7455
pty	-7456
▁9.	-7457
▁FA	-7458
▁PA	-7459
▁WW	-7460
anda	-7461
bles	-7462
bour	-7463
heet	-7464
icit	-7465
lvan	-7466
▁Los	-7467
▁rab	-7468
erman	-7469
plete	-7470
▁1980	-7471
▁Bank	-7472
forest	-7473
▁Brain	-7474
▁Queen	-7475
▁frame	-7476
▁grant	-7477
▁overw	-7478
▁agreed	-7479
▁branch	-7480
▁finger	-7481
▁Physics	-7482
▁consume	-7483
▁dentist	-7484
▁drivers	-7485
▁infants	-7486
▁Missouri	-7487
▁moderate	-7488
▁soldiers	-7489
▁tutorial	-7490
imensional	-7491
▁Tennessee	-7492
▁dependent	-7493
▁employees	-7494
▁resistant	-7495
▁initiative	-7496
▁television	-7497
▁Introduction	-7498
44	-7499
76	-7500
▁(5	-7501
▁3-	-7502
apes	-7503
phal	-7504
sell	-7505
▁Cat	-7506
▁Flu	-7507
▁Occ	-7508
▁PDF	-7509
▁pla	-7510
▁unw	-7511
▁Swed	-7512
▁chap	-7513
▁coat	-7514
▁rose	-7515
▁Field	-7516
▁chlor	-7517
▁rhyth	-7518
▁tract	-7519
▁Oregon	-7520
▁analys	-7521
▁fourth	-7522
▁refrig	-7523
▁Article	-7524
▁Kingdom	-7525
▁Parents	-7526
▁chances	-7527
▁entered	-7528
▁guarant	-7529
▁imagine	-7530
▁believes	-7531
▁politics	-7532
▁reviewed	-7533
▁watching	-7534
▁associate	-7535
▁bacterial	-7536
▁surprised	-7537
▁surprising	-7538
▁examination	-7539
▁Organization	-7540
▁automatically	-7541
tw	-7542
ugg	-7543
When	-7544
fast	-7545
lete	-7546
oons	-7547
opic	-7548
rend	-7549
unch	-7550
▁EPA	-7551
▁Est	-7552
▁Sar	-7553
▁lie	-7554
asant	-7555
igate	-7556
▁Full	-7557
▁epis	-7558
▁nuts	-7559
▁push	-7560
▁suit	-7561
gments	-7562
▁Facts	-7563
▁Grade	-7564
▁Story	-7565
▁shock	-7566
ocolate	-7567
▁Policy	-7568
▁buried	-7569
▁client	-7570
▁grades	-7571
▁Lincoln	-7572
▁Writing	-7573
▁knowing	-7574
▁passage	-7575
▁reveals	-7576
▁thermal	-7577
▁visited	-7578
▁detected	-7579
▁vertical	-7580
▁assistant	-7581
▁introduce	-7582
▁mortality	-7583
▁screening	-7584
▁innovation	-7585
▁authorities	-7586
▁recognition	-7587
▁restoration	-7588
▁cardiovascular	-7589
28	-7590
CA	-7591
DS	-7592
QL	-7593
aya	-7594
ini	-7595
itar	-7596
▁cub	-7597
cking	-7598
ubble	-7599
▁Fact	-7600
▁Resp	-7601
▁clar	-7602
▁lawn	-7603
▁perm	-7604
ferent	-7605
hedral	-7606
reated	-7607
▁Impro	-7608
▁Incre	-7609
▁Satur	-7610
▁cream	-7611
lishing	-7612
▁Bureau	-7613
▁Dental	-7614
▁salmon	-7615
▁stimul	-7616
▁traits	-7617
▁Arizona	-7618
▁Healthy	-7619
▁Species	-7620
▁granted	-7621
▁intense	-7622
▁metabol	-7623
▁stopped	-7624
▁Teaching	-7625
▁category	-7626
▁consumed	-7627
▁employed	-7628
▁interior	-7629
▁electrons	-7630
▁investigation	-7631
MO	-7632
Re	-7633
sm	-7634
-10	-7635
▁TO	-7636
▁id	-7637
apse	-7638
list	-7639
omer	-7640
▁gly	-7641
ether	-7642
icted	-7643
▁Stan	-7644
▁Week	-7645
▁conj	-7646
▁dies	-7647
▁mine	-7648
▁mold	-7649
▁noun	-7650
sylvan	-7651
▁2012.	-7652
▁Based	-7653
▁Books	-7654
▁Often	-7655
▁array	-7656
▁audio	-7657
▁dense	-7658
▁eaten	-7659
▁ratio	-7660
▁roads	-7661
▁shall	-7662
▁smell	-7663
▁urine	-7664
▁critic	-7665
▁grains	-7666
▁reward	-7667
▁adverse	-7668
▁arrived	-7669
▁desired	-7670
▁exhibit	-7671
▁streams	-7672
▁windows	-7673
▁bullying	-7674
ailability	-7675
▁uncertain	-7676
▁investigate	-7677
▁concentrations	-7678
UN	-7679
dep	-7680
orr	-7681
▁75	-7682
ella	-7683
onym	-7684
▁Mel	-7685
▁fet	-7686
▁wat	-7687
ieval	-7688
rants	-7689
words	-7690
▁Bill	-7691
▁Hard	-7692
▁myst	-7693
▁span	-7694
itting	-7695
▁Print	-7696
▁Watch	-7697
▁hopes	-7698
▁cattle	-7699
▁errors	-7700
▁hybrid	-7701
▁refuge	-7702
▁strict	-7703
ventions	-7704
▁Eastern	-7705
▁Several	-7706
▁sensors	-7707
▁substit	-7708
▁Consider	-7709
▁heritage	-7710
▁basically	-7711
▁confirmed	-7712
▁decreased	-7713
▁detection	-7714
▁pediatric	-7715
▁Pennsylvan	-7716
▁aggressive	-7717
▁ecosystems	-7718
▁maintained	-7719
▁measurement	-7720
▁sensitivity	-7721
TP	-7722
aph	-7723
uan	-7724
una	-7725
▁Ma	-7726
cons	-7727
ders	-7728
ptic	-7729
▁Nic	-7730
▁Num	-7731
▁Ven	-7732
▁cab	-7733
agram	-7734
ighth	-7735
inate	-7736
oples	-7737
riend	-7738
▁1960	-7739
▁Farm	-7740
▁Prop	-7741
▁Unit	-7742
▁lens	-7743
▁sulf	-7744
iosity	-7745
osaurs	-7746
▁loose	-7747
▁sales	-7748
ivities	-7749
▁Oxford	-7750
▁driven	-7751
▁fellow	-7752
▁signed	-7753
▁Commons	-7754
criptions	-7755
▁assigned	-7756
▁composed	-7757
▁controls	-7758
ographical	-7759
▁Published	-7760
▁abilities	-7761
▁exception	-7762
▁experimental	-7763
▁intervention	-7764
TH	-7765
iva	-7766
▁3:	-7767
hent	-7768
▁Jup	-7769
▁Max	-7770
erior	-7771
▁bell	-7772
▁bond	-7773
▁bugs	-7774
▁ears	-7775
▁herb	-7776
bridge	-7777
▁Still	-7778
▁doubt	-7779
▁lists	-7780
▁sizes	-7781
▁Contin	-7782
▁Proble	-7783
▁assets	-7784
▁corpor	-7785
▁trends	-7786
▁writes	-7787
▁colored	-7788
▁dietary	-7789
▁dynamic	-7790
▁falling	-7791
▁mixture	-7792
▁suspect	-7793
▁virtual	-7794
▁applying	-7795
▁dementia	-7796
▁informed	-7797
▁schedule	-7798
▁suffered	-7799
▁Questions	-7800
▁conclusion	-7801
▁mechanisms	-7802
▁statistics	-7803
▁understood	-7804
▁comfortable	-7805
48	-7806
BN	-7807
IR	-7808
df	-7809
ii	-7810
eath	-7811
elly	-7812
from	-7813
mble	-7814
soft	-7815
tail	-7816
▁Kar	-7817
▁Upd	-7818
▁Yes	-7819
▁inn	-7820
inity	-7821
pling	-7822
▁Tips	-7823
▁Tues	-7824
▁fulf	-7825
▁subt	-7826
▁vice	-7827
elfare	-7828
ocracy	-7829
▁clock	-7830
▁fatty	-7831
▁grams	-7832
▁recur	-7833
▁Choose	-7834
▁combat	-7835
▁copper	-7836
▁recept	-7837
▁resist	-7838
▁troops	-7839
▁wouldn	-7840
aterials	-7841
original	-7842
▁calling	-7843
▁fingers	-7844
▁illegal	-7845
▁markets	-7846
▁newborn	-7847
▁stations	-7848
▁workshop	-7849
▁creatures	-7850
▁initially	-7851
▁processed	-7852
▁ecological	-7853
▁innovative	-7854
▁atmospheric	-7855
▁institution	-7856
▁constitution	-7857
CR	-7858
LS	-7859
lo	-7860
onn	-7861
tic	-7862
xts	-7863
html	-7864
irus	-7865
just	-7866
olar	-7867
▁HPV	-7868
▁scr	-7869
▁vag	-7870
ocket	-7871
reens	-7872
▁deer	-7873
▁defe	-7874
▁mood	-7875
▁wine	-7876
esides	-7877
▁bulbs	-7878
▁Cooper	-7879
▁Import	-7880
▁Modern	-7881
▁depart	-7882
▁prohib	-7883
▁styles	-7884
▁tracks	-7885
▁wisdom	-7886
▁evening	-7887
▁forming	-7888
▁outdoor	-7889
operation	-7890
▁accounts	-7891
▁flexible	-7892
▁gathered	-7893
▁managing	-7894
▁websites	-7895
▁arthritis	-7896
▁confident	-7897
▁districts	-7898
▁hospitals	-7899
▁lightning	-7900
▁endangered	-7901
▁performing	-7902
▁statements	-7903
▁preparation	-7904
▁contribution	-7905
IF	-7906
alm	-7907
asy	-7908
box	-7909
▁4:	-7910
▁AS	-7911
icts	-7912
made	-7913
obic	-7914
onia	-7915
▁Imp	-7916
▁Pot	-7917
▁fer	-7918
▁fur	-7919
▁pin	-7920
▁tob	-7921
▁vom	-7922
etary	-7923
ostic	-7924
ushed	-7925
▁2002	-7926
▁Diet	-7927
▁Help	-7928
▁cave	-7929
making	-7930
▁Level	-7931
▁Think	-7932
▁fatal	-7933
▁veloc	-7934
▁Animal	-7935
▁Jersey	-7936
▁failed	-7937
▁reject	-7938
▁scenes	-7939
▁sheets	-7940
▁slaves	-7941
▁Jupiter	-7942
▁Similar	-7943
▁chamber	-7944
▁disrupt	-7945
▁planned	-7946
▁reverse	-7947
▁slavery	-7948
▁spiders	-7949
▁suicide	-7950
▁Interest	-7951
▁criminal	-7952
▁literary	-7953
▁preserve	-7954
▁sessions	-7955
▁correctly	-7956
▁commitment	-7957
▁constantly	-7958
▁elementary	-7959
▁kilometers	-7960
▁achievement	-7961
▁considering	-7962
▁efficiently	-7963
▁observation	-7964
▁contaminated	-7965
▁representation	-7966
39	-7967
BT	-7968
▁PL	-7969
▁ol	-7970
apor	-7971
cule	-7972
ghan	-7973
onut	-7974
oves	-7975
▁Hem	-7976
▁ash	-7977
▁obl	-7978
inder	-7979
ishop	-7980
ounce	-7981
▁2020	-7982
▁Five	-7983
▁Hand	-7984
▁fats	-7985
▁glac	-7986
▁Blood	-7987
▁fuels	-7988
▁globe	-7989
▁sperm	-7990
▁Create	-7991
▁Marine	-7992
▁agents	-7993
▁calend	-7994
▁finish	-7995
▁intent	-7996
▁mature	-7997
▁street	-7998
▁weekly	-7999
iability	-8000
▁defense	-8001
▁equally	-8002
▁pointed	-8003
▁raising	-8004
▁solving	-8005
▁swallow	-8006
▁symbols	-8007
▁tobacco	-8008
▁whereas	-8009
▁Download	-8010
▁Physical	-8011
▁accompan	-8012
▁versions	-8013
▁Definition	-8014
▁continuing	-8015
▁exhibition	-8016
▁proportion	-8017
▁Pennsylvania	-8018
’,	-8019
Our	-8020
aws	-8021
vol	-8022
▁Er	-8023
▁fo	-8024
bean	-8025
hire	-8026
idal	-8027
quir	-8028
rine	-8029
roud	-8030
▁Fac	-8031
▁NOT	-8032
▁Nob	-8033
▁bee	-8034
▁cul	-8035
berry	-8036
erted	-8037
giene	-8038
iture	-8039
oured	-8040
rical	-8041
▁Guid	-8042
▁Mach	-8043
▁Near	-8044
▁Pain	-8045
▁gest	-8046
▁oste	-8047
▁plot	-8048
▁verb	-8049
erving	-8050
▁Exerc	-8051
▁Local	-8052
▁lunch	-8053
▁nodes	-8054
▁weigh	-8055
▁clouds	-8056
▁driver	-8057
▁ethnic	-8058
▁strain	-8059
▁Product	-8060
▁Student	-8061
▁Working	-8062
▁claimed	-8063
▁lecture	-8064
▁painful	-8065
▁adequate	-8066
▁balanced	-8067
▁priority	-8068
▁Francisco	-8069
▁calculate	-8070
▁displayed	-8071
▁engineers	-8072
▁extension	-8073
▁preschool	-8074
▁promoting	-8075
▁temporary	-8076
▁definitely	-8077
▁partnership	-8078
▁contributions	-8079
▁communications	-8080
',	-8081
'.	-8082
2)	-8083
98	-8084
ffe	-8085
fol	-8086
semb	-8087
▁Hyd	-8088
▁Lic	-8089
▁Mur	-8090
anger	-8091
green	-8092
izers	-8093
rared	-8094
uther	-8095
▁Need	-8096
▁debr	-8097
▁peak	-8098
▁pill	-8099
▁Music	-8100
▁minds	-8101
▁Battle	-8102
▁Plants	-8103
▁Yellow	-8104
▁cigare	-8105
▁defend	-8106
▁golden	-8107
▁victim	-8108
▁Tuesday	-8109
▁neither	-8110
▁waiting	-8111
▁Diabetes	-8112
▁bleeding	-8113
▁coverage	-8114
▁epidemic	-8115
▁isolated	-8116
▁strongly	-8117
▁positions	-8118
▁assignment	-8119
▁pesticides	-8120
▁references	-8121
▁strengthen	-8122
▁astronomers	-8123
▁discussions	-8124
▁manufacturers	-8125
▁sustainability	-8126
77	-8127
bec	-8128
ker	-8129
ods	-8130
▁UV	-8131
▁Ve	-8132
agan	-8133
rape	-8134
▁1.5	-8135
▁CDC	-8136
▁Dev	-8137
▁Pur	-8138
▁cow	-8139
▁lob	-8140
▁mir	-8141
▁mun	-8142
icing	-8143
itory	-8144
night	-8145
obile	-8146
▁Oper	-8147
▁Redu	-8148
▁STEM	-8149
▁Tree	-8150
▁ampl	-8151
shaped	-8152
▁Index	-8153
▁Paper	-8154
▁Photo	-8155
▁Table	-8156
▁Video	-8157
▁pairs	-8158
▁panel	-8159
▁parks	-8160
▁remed	-8161
▁trace	-8162
▁Assess	-8163
▁Making	-8164
▁Secret	-8165
▁convey	-8166
▁enzyme	-8167
▁indeed	-8168
▁Indians	-8169
▁combine	-8170
▁grammar	-8171
▁peoples	-8172
▁streets	-8173
▁Saturday	-8174
▁adjacent	-8175
▁contents	-8176
▁develops	-8177
▁earliest	-8178
▁homework	-8179
▁Nutrition	-8180
▁Standards	-8181
▁addressed	-8182
▁elsewhere	-8183
▁expertise	-8184
▁healthier	-8185
▁protective	-8186
▁reflection	-8187
▁volunteers	-8188
▁Furthermore	-8189
▁transmitted	-8190
▁demonstrates	-8191
▁illustrations	-8192
cho	-8193
cin	-8194
cut	-8195
got	-8196
hus	-8197
ogy	-8198
sis	-8199
agle	-8200
that	-8201
▁1/2	-8202
▁hus	-8203
arium	-8204
eroid	-8205
spect	-8206
venue	-8207
▁Best	-8208
▁Java	-8209
▁cerv	-8210
▁disk	-8211
▁gift	-8212
▁icon	-8213
▁inch	-8214
▁pace	-8215
▁soph	-8216
▁crown	-8217
▁guard	-8218
▁param	-8219
▁10,000	-8220
▁metals	-8221
▁strike	-8222
▁themes	-8223
▁counsel	-8224
▁possess	-8225
▁utility	-8226
▁Building	-8227
▁protocol	-8228
▁scenario	-8229
▁Following	-8230
▁Historical	-8231
▁advantages	-8232
▁characterized	-8233
88	-8234
And	-8235
abs	-8236
bow	-8237
ema	-8238
oys	-8239
sen	-8240
▁CR	-8241
▁Cra	-8242
▁asp	-8243
▁mes	-8244
▁unn	-8245
acher	-8246
arios	-8247
casts	-8248
oride	-8249
▁Self	-8250
▁USDA	-8251
▁Viet	-8252
▁busy	-8253
▁cher	-8254
▁gate	-8255
▁panc	-8256
▁toys	-8257
rieved	-8258
urches	-8259
▁2010.	-8260
▁2012,	-8261
▁begun	-8262
▁canal	-8263
▁doors	-8264
▁juice	-8265
▁wheel	-8266
western	-8267
▁Temple	-8268
▁assume	-8269
▁degrad	-8270
▁ranges	-8271
▁spider	-8272
ditional	-8273
etically	-8274
▁cameras	-8275
▁classic	-8276
▁housing	-8277
▁insight	-8278
▁acquired	-8279
▁allergic	-8280
▁declared	-8281
▁equation	-8282
▁hardware	-8283
▁insights	-8284
▁nutrient	-8285
▁predators	-8286
▁Conference	-8287
▁commission	-8288
▁containers	-8289
▁physically	-8290
▁disabilities	-8291
▁carbohydrates	-8292
leg	-8293
vin	-8294
▁CH	-8295
▁NE	-8296
host	-8297
imic	-8298
uits	-8299
▁10,	-8300
▁120	-8301
▁Aud	-8302
▁Cir	-8303
▁Die	-8304
▁Dom	-8305
▁Mid	-8306
borne	-8307
enter	-8308
hesis	-8309
▁1950	-8310
▁Emer	-8311
▁Turn	-8312
▁girl	-8313
▁none	-8314
▁pond	-8315
herent	-8316
ologic	-8317
▁banks	-8318
▁cited	-8319
▁guess	-8320
▁proof	-8321
▁wound	-8322
issance	-8323
ogether	-8324
regular	-8325
▁Lesson	-8326
▁debris	-8327
▁exclus	-8328
▁genome	-8329
▁oceans	-8330
▁panels	-8331
▁safely	-8332
▁Johnson	-8333
▁allergy	-8334
▁beneath	-8335
▁chromos	-8336
▁coating	-8337
▁enforce	-8338
▁heavily	-8339
▁voltage	-8340
rological	-8341
▁Electric	-8342
▁graduate	-8343
▁opinions	-8344
▁vitamins	-8345
▁wireless	-8346
▁Louisiana	-8347
▁chocolate	-8348
▁discharge	-8349
▁happiness	-8350
▁paintings	-8351
▁photograp	-8352
▁principal	-8353
▁behavioral	-8354
▁designated	-8355
▁influenced	-8356
▁remarkable	-8357
▁specialized	-8358
▁improvements	-8359
▁possibilities	-8360
CN	-8361
po	-8362
ady	-8363
▁''	-8364
▁Ly	-8365
amps	-8366
bell	-8367
emet	-8368
igue	-8369
unci	-8370
▁Ren	-8371
▁hat	-8372
▁tag	-8373
eping	-8374
orted	-8375
▁Prim	-8376
▁bare	-8377
ranean	-8378
ulsion	-8379
▁Obama	-8380
▁crime	-8381
▁diarr	-8382
▁dress	-8383
▁lakes	-8384
▁posts	-8385
▁roles	-8386
emetery	-8387
holders	-8388
riendly	-8389
▁Astron	-8390
▁Confed	-8391
▁Credit	-8392
▁Number	-8393
▁acknow	-8394
▁brains	-8395
▁infant	-8396
▁profit	-8397
▁Explore	-8398
▁bladder	-8399
▁compens	-8400
▁comprom	-8401
▁neutral	-8402
▁officer	-8403
▁shorter	-8404
▁witness	-8405
▁Moreover	-8406
▁abstract	-8407
▁outbreak	-8408
▁overwhel	-8409
▁sediment	-8410
▁addresses	-8411
▁consuming	-8412
▁paragraph	-8413
▁preparing	-8414
▁discipline	-8415
▁suggestions	-8416
23	-8417
29	-8418
Ex	-8419
MA	-8420
har	-8421
ili	-8422
imm	-8423
▁6,	-8424
▁RE	-8425
http	-8426
orms	-8427
otal	-8428
page	-8429
ptom	-8430
▁Due	-8431
▁Iss	-8432
▁Pak	-8433
▁inh	-8434
atoes	-8435
haust	-8436
oster	-8437
▁palm	-8438
effect	-8439
icular	-8440
olving	-8441
resent	-8442
▁Later	-8443
▁Major	-8444
▁empty	-8445
▁haven	-8446
▁owned	-8447
▁plain	-8448
▁Indust	-8449
▁guitar	-8450
▁phrase	-8451
▁poetry	-8452
▁preced	-8453
▁satisf	-8454
▁saving	-8455
▁strand	-8456
▁tempor	-8457
▁viewed	-8458
▁Sustain	-8459
▁Twitter	-8460
▁dropped	-8461
▁manager	-8462
▁noticed	-8463
▁Business	-8464
▁Examples	-8465
▁Mountain	-8466
▁criteria	-8467
▁entering	-8468
▁theories	-8469
▁Pediatric	-8470
▁therapies	-8471
▁variation	-8472
▁collections	-8473
▁nutritional	-8474
▁productivity	-8475
)|	-8476
va	-8477
ipe	-8478
rem	-8479
ude	-8480
vit	-8481
▁55	-8482
▁Ur	-8483
▁11,	-8484
▁12,	-8485
▁800	-8486
▁Pay	-8487
▁Var	-8488
▁muc	-8489
actic	-8490
enger	-8491
itzer	-8492
▁Risk	-8493
▁buff	-8494
▁hurt	-8495
▁pion	-8496
opathy	-8497
owered	-8498
rology	-8499
▁Charl	-8500
▁irrig	-8501
▁sched	-8502
through	-8503
▁domain	-8504
▁merely	-8505
▁sevent	-8506
▁Between	-8507
▁adolesc	-8508
▁clothes	-8509
▁compass	-8510
▁graphic	-8511
▁matters	-8512
▁opposed	-8513
▁outcome	-8514
▁teaches	-8515
▁interpre	-8516
▁ordinary	-8517
▁concluded	-8518
▁encounter	-8519
▁traveling	-8520
▁wonderful	-8521
▁accomplish	-8522
▁specialist	-8523
▁distinguish	-8524
▁implemented	-8525
33	-8526
bar	-8527
ura	-8528
▁(4	-8529
▁NO	-8530
▁Pu	-8531
erly	-8532
lock	-8533
pany	-8534
▁GDP	-8535
▁Leg	-8536
▁McC	-8537
▁Sup	-8538
▁Typ	-8539
▁pel	-8540
▁unp	-8541
stein	-8542
▁ease	-8543
▁loud	-8544
▁pros	-8545
▁seal	-8546
▁shed	-8547
ediate	-8548
estock	-8549
ultane	-8550
venile	-8551
▁Gener	-8552
▁alike	-8553
▁enemy	-8554
▁grain	-8555
▁quiet	-8556
atively	-8557
▁Figure	-8558
▁Images	-8559
▁absorb	-8560
▁bottle	-8561
▁cement	-8562
▁impair	-8563
▁powder	-8564
▁scores	-8565
▁sought	-8566
▁wooden	-8567
heastern	-8568
▁Angeles	-8569
▁Mercury	-8570
▁absence	-8571
▁excited	-8572
▁formula	-8573
▁violent	-8574
▁actively	-8575
▁breaking	-8576
▁minimize	-8577
▁vomiting	-8578
▁weakness	-8579
▁separated	-8580
▁households	-8581
▁traditions	-8582
▁controlling	-8583
▁differently	-8584
▁substantial	-8585
▁prescription	-8586
/0	-8587
Is	-8588
cia	-8589
loc	-8590
rox	-8591
zes	-8592
▁5,	-8593
▁AC	-8594
▁pH	-8595
ifer	-8596
onal	-8597
pert	-8598
▁Ide	-8599
▁Map	-8600
▁dim	-8601
▁pra	-8602
▁van	-8603
ifted	-8604
▁1930	-8605
▁Drug	-8606
▁bull	-8607
makers	-8608
profit	-8609
▁Death	-8610
▁chose	-8611
▁dolph	-8612
▁funds	-8613
▁occas	-8614
▁pumps	-8615
▁slave	-8616
▁stems	-8617
▁texts	-8618
▁tight	-8619
istical	-8620
▁Afghan	-8621
▁Living	-8622
▁devast	-8623
▁proved	-8624
▁rocket	-8625
▁thread	-8626
▁varied	-8627
ivestock	-8628
▁analyze	-8629
▁authent	-8630
▁enjoyed	-8631
▁lighter	-8632
▁reviews	-8633
▁stretch	-8634
▁ensuring	-8635
▁molecule	-8636
▁velocity	-8637
▁wetlands	-8638
▁Character	-8639
▁agreement	-8640
▁Scientific	-8641
▁classified	-8642
▁dictionary	-8643
▁Publication	-8644
▁respectively	-8645
▁technological	-8646
.'	-8647
PD	-8648
Sp	-8649
TA	-8650
asm	-8651
occ	-8652
ocy	-8653
she	-8654
sun	-8655
ubs	-8656
▁Ol	-8657
▁ul	-8658
orie	-8659
▁Aff	-8660
▁Bad	-8661
▁Jim	-8662
▁Mah	-8663
ading	-8664
doors	-8665
ipher	-8666
world	-8667
▁2003	-8668
▁Answ	-8669
▁Core	-8670
▁Flow	-8671
▁Imag	-8672
abetic	-8673
▁Offic	-8674
▁hence	-8675
▁prime	-8676
▁Action	-8677
▁Alaska	-8678
▁guides	-8679
▁losses	-8680
▁prompt	-8681
▁transf	-8682
▁varies	-8683
▁channel	-8684
▁cluster	-8685
▁mystery	-8686
▁returns	-8687
▁settled	-8688
▁Creative	-8689
▁Document	-8690
▁Historic	-8691
▁Independ	-8692
▁Memorial	-8693
▁Previous	-8694
▁directed	-8695
▁removing	-8696
▁swelling	-8697
▁computing	-8698
▁illnesses	-8699
▁prominent	-8700
▁hypothesis	-8701
▁surrounded	-8702
▁replacement	-8703
7)	-8704
AA	-8705
MP	-8706
On	-8707
For	-8708
iro	-8709
oto	-8710
▁8,	-8711
▁UC	-8712
bage	-8713
ilst	-8714
oust	-8715
step	-8716
stru	-8717
thon	-8718
▁50%	-8719
ermat	-8720
▁2001	-8721
▁Rain	-8722
▁beat	-8723
▁fant	-8724
▁oxid	-8725
▁quiz	-8726
▁soap	-8727
▁tens	-8728
▁unem	-8729
▁wise	-8730
iments	-8731
▁Jones	-8732
▁Wales	-8733
▁adopt	-8734
▁conqu	-8735
▁dried	-8736
▁enorm	-8737
▁union	-8738
▁wavel	-8739
▁Invest	-8740
▁Princi	-8741
▁gained	-8742
▁losing	-8743
▁passes	-8744
▁toothp	-8745
▁worker	-8746
isations	-8747
▁Process	-8748
▁killing	-8749
▁passion	-8750
▁shelter	-8751
▁attempts	-8752
▁colonies	-8753
▁genetics	-8754
▁humidity	-8755
▁astronaut	-8756
▁digestive	-8757
▁reporting	-8758
▁addressing	-8759
▁ingredient	-8760
▁regardless	-8761
▁variations	-8762
▁circulation	-8763
▁contributed	-8764
▁availability	-8765
▁reproductive	-8766
▁Understanding	-8767
")	-8768
55	-8769
UT	-8770
iat	-8771
swe	-8772
▁(6	-8773
▁ON	-8774
amar	-8775
anut	-8776
iano	-8777
omal	-8778
▁600	-8779
▁Hig	-8780
▁Hun	-8781
▁Jul	-8782
▁Sir	-8783
▁tal	-8784
▁yog	-8785
books	-8786
burgh	-8787
eness	-8788
▁peas	-8789
▁prox	-8790
▁semi	-8791
irable	-8792
rapeut	-8793
▁Lower	-8794
▁Title	-8795
▁Write	-8796
▁brush	-8797
▁cable	-8798
▁proud	-8799
▁withd	-8800
▁couldn	-8801
▁dollar	-8802
▁warmer	-8803
▁Centers	-8804
▁Protect	-8805
▁Schools	-8806
▁chicken	-8807
▁selling	-8808
▁workout	-8809
▁prevents	-8810
▁sciences	-8811
▁simultane	-8812
▁freshwater	-8813
▁Description	-8814
▁personality	-8815
▁probability	-8816
▁developments	-8817
▁corresponding	-8818
9)	-8819
BD	-8820
CH	-8821
NS	-8822
dy	-8823
uz	-8824
100	-8825
ela	-8826
mal	-8827
yal	-8828
▁1/	-8829
▁PC	-8830
▁Sn	-8831
asma	-8832
erts	-8833
ruit	-8834
▁Gir	-8835
▁Hop	-8836
▁Lim	-8837
▁adm	-8838
▁blo	-8839
▁les	-8840
▁mud	-8841
elect	-8842
onsin	-8843
▁1000	-8844
▁Walk	-8845
▁rats	-8846
▁reef	-8847
▁wars	-8848
ewater	-8849
▁cheap	-8850
▁crust	-8851
▁diets	-8852
▁entit	-8853
▁faced	-8854
▁flour	-8855
▁harsh	-8856
▁omega	-8857
▁rings	-8858
▁wider	-8859
ilation	-8860
▁Always	-8861
▁burned	-8862
▁copies	-8863
▁fluids	-8864
▁legend	-8865
▁racial	-8866
▁sensor	-8867
isconsin	-8868
▁faculty	-8869
▁fatigue	-8870
▁kitchen	-8871
▁surveys	-8872
▁Analysis	-8873
▁Maryland	-8874
▁Standard	-8875
▁analyzed	-8876
▁flooding	-8877
▁hormones	-8878
▁lighting	-8879
▁quantity	-8880
▁settlers	-8881
▁identical	-8882
▁reflected	-8883
▁universal	-8884
▁creativity	-8885
▁everywhere	-8886
▁overweight	-8887
▁expressions	-8888
REE	-8889
ika	-8890
ogs	-8891
owa	-8892
▁9,	-8893
aund	-8894
char	-8895
emia	-8896
emor	-8897
iors	-8898
rint	-8899
thew	-8900
uten	-8901
▁Ont	-8902
▁PhD	-8903
ained	-8904
archy	-8905
atter	-8906
duate	-8907
ifier	-8908
▁Alab	-8909
▁Name	-8910
▁pink	-8911
▁tong	-8912
ersion	-8913
▁Again	-8914
▁Given	-8915
▁brand	-8916
▁embra	-8917
▁faces	-8918
▁gifts	-8919
▁skull	-8920
▁verte	-8921
▁wings	-8922
▁powers	-8923
▁speeds	-8924
▁Discuss	-8925
▁charged	-8926
▁package	-8927
▁promise	-8928
▁readily	-8929
▁strains	-8930
▁artistic	-8931
▁drawings	-8932
▁emerging	-8933
▁regarded	-8934
▁spelling	-8935
▁executive	-8936
▁newspaper	-8937
▁purchased	-8938
▁regulation	-8939
▁wavelength	-8940
56	-8941
mn	-8942
oa	-8943
▁@	-8944
fat	-8945
arks	-8946
elve	-8947
onom	-8948
▁Dou	-8949
▁Win	-8950
▁hal	-8951
▁ham	-8952
▁nic	-8953
leton	-8954
lines	-8955
osaur	-8956
▁1800	-8957
▁Navy	-8958
▁cosm	-8959
▁cuts	-8960
▁emit	-8961
▁puts	-8962
author	-8963
▁2010,	-8964
▁Benef	-8965
▁Dutch	-8966
▁Enter	-8967
▁Force	-8968
▁Sound	-8969
▁agent	-8970
▁blank	-8971
▁chair	-8972
▁fifth	-8973
▁manif	-8974
▁resil	-8975
▁shoot	-8976
▁spine	-8977
agnetic	-8978
▁Edward	-8979
▁attach	-8980
▁basics	-8981
▁correl	-8982
▁nerves	-8983
▁scales	-8984
▁Ancient	-8985
▁Section	-8986
▁borders	-8987
▁carries	-8988
▁demands	-8989
▁grounds	-8990
▁offices	-8991
▁telling	-8992
▁weapons	-8993
▁welfare	-8994
imensions	-8995
▁Mathemat	-8996
▁Patients	-8997
▁counties	-8998
▁equality	-8999
▁memorial	-9000
▁Cambridge	-9001
▁Microsoft	-9002
▁ancestors	-9003
▁designers	-9004
▁entertain	-9005
▁preserved	-9006
▁spreading	-9007
▁Parliament	-9008
▁absolutely	-9009
▁indigenous	-9010
▁meaningful	-9011
▁perception	-9012
▁practition	-9013
▁recommends	-9014
▁definitions	-9015
▁installation	-9016
▁interventions	-9017
!!	-9018
!”	-9019
ett	-9020
nea	-9021
obs	-9022
oul	-9023
pdf	-9024
▁(“	-9025
▁Br	-9026
▁SP	-9027
▁pp	-9028
mond	-9029
nial	-9030
olis	-9031
ques	-9032
▁20%	-9033
▁Exp	-9034
▁Fil	-9035
▁GIS	-9036
▁Hor	-9037
▁Log	-9038
▁Neu	-9039
▁bib	-9040
▁cin	-9041
▁ion	-9042
▁sho	-9043
▁tap	-9044
ilson	-9045
inger	-9046
▁Fram	-9047
▁Leon	-9048
▁cash	-9049
▁chim	-9050
▁gent	-9051
▁nort	-9052
▁tick	-9053
cephal	-9054
ergart	-9055
monary	-9056
▁Maria	-9057
▁alter	-9058
▁resid	-9059
▁safer	-9060
atching	-9061
isphere	-9062
▁config	-9063
▁deadly	-9064
▁flavor	-9065
▁linear	-9066
▁relate	-9067
friendly	-9068
▁Alabama	-9069
▁applies	-9070
▁convert	-9071
▁hazards	-9072
▁malaria	-9073
▁Archives	-9074
▁magazine	-9075
▁outdoors	-9076
▁rainfall	-9077
▁visiting	-9078
▁algorithm	-9079
▁classical	-9080
▁narrative	-9081
▁perfectly	-9082
▁prevented	-9083
▁sophistic	-9084
▁attributes	-9085
▁mosquitoes	-9086
▁psychology	-9087
▁initiatives	-9088
My	-9089
So	-9090
▁;	-9091
All	-9092
ila	-9093
lan	-9094
ugs	-9095
burn	-9096
comm	-9097
iger	-9098
rary	-9099
real	-9100
ttps	-9101
▁Bow	-9102
▁Dry	-9103
▁Naz	-9104
▁tor	-9105
▁vig	-9106
antly	-9107
atial	-9108
raham	-9109
sters	-9110
▁Eliz	-9111
▁Much	-9112
▁bomb	-9113
▁bore	-9114
▁cows	-9115
▁marg	-9116
action	-9117
▁Behav	-9118
▁Integ	-9119
▁Linux	-9120
▁algae	-9121
▁argue	-9122
▁bites	-9123
▁boxes	-9124
▁dehyd	-9125
▁digit	-9126
▁dimin	-9127
▁numer	-9128
▁tomat	-9129
taining	-9130
▁hurric	-9131
▁Teacher	-9132
▁aquatic	-9133
▁hygiene	-9134
▁landing	-9135
▁mapping	-9136
▁methane	-9137
▁origins	-9138
▁reaches	-9139
▁Victoria	-9140
▁customer	-9141
▁election	-9142
▁emphasis	-9143
▁friendly	-9144
▁incident	-9145
▁surprise	-9146
▁Jefferson	-9147
▁Wisconsin	-9148
▁animation	-9149
▁libraries	-9150
▁qualified	-9151
▁classrooms	-9152
▁physicians	-9153
▁settlement	-9154
▁accompanied	-9155
▁determining	-9156
▁discoveries	-9157
▁residential	-9158
▁theoretical	-9159
▁intellectual	-9160
▁consideration	-9161
▁characteristic	-9162
-9	-9163
3%	-9164
31	-9165
BM	-9166
IG	-9167
To	-9168
wa	-9169
New	-9170
aze	-9171
iah	-9172
▁AR	-9173
▁mm	-9174
▁Ash	-9175
▁rod	-9176
▁upl	-9177
These	-9178
flamm	-9179
pring	-9180
trans	-9181
▁100%	-9182
▁Prom	-9183
▁gear	-9184
isible	-9185
▁2009,	-9186
▁Creek	-9187
▁Large	-9188
▁Maine	-9189
▁Visit	-9190
▁Words	-9191
▁advis	-9192
▁beach	-9193
▁negot	-9194
▁shade	-9195
▁slide	-9196
▁spons	-9197
▁steam	-9198
▁Observ	-9199
▁Within	-9200
▁advert	-9201
▁myster	-9202
▁permit	-9203
▁seemed	-9204
ications	-9205
▁Certain	-9206
▁Example	-9207
▁Supreme	-9208
▁breathe	-9209
▁conclus	-9210
▁melting	-9211
▁prolong	-9212
▁shallow	-9213
▁Pakistan	-9214
▁attitude	-9215
▁improves	-9216
▁potatoes	-9217
▁survived	-9218
▁targeted	-9219
generation	-9220
▁Currently	-9221
▁irregular	-9222
▁preferred	-9223
▁producers	-9224
▁programme	-9225
▁reservoir	-9226
▁scenarios	-9227
▁pollutants	-9228
▁worksheets	-9229
▁assessments	-9230
▁photography	-9231
▁contributing	-9232
▁representing	-9233
8)	-9234
EF	-9235
EG	-9236
OC	-9237
cm	-9238
vy	-9239
But	-9240
aka	-9241
bel	-9242
hoe	-9243
▁5:	-9244
▁BM	-9245
▁DC	-9246
text	-9247
▁Ram	-9248
▁lib	-9249
▁shr	-9250
▁sle	-9251
▁vac	-9252
ansas	-9253
ogens	-9254
ricks	-9255
sized	-9256
usive	-9257
worth	-9258
▁ADHD	-9259
▁Code	-9260
▁Dogs	-9261
▁Mind	-9262
▁cort	-9263
▁fits	-9264
▁germ	-9265
▁mile	-9266
▁mini	-9267
astics	-9268
engers	-9269
ortion	-9270
▁bonds	-9271
▁spark	-9272
▁stere	-9273
▁weeds	-9274
ometric	-9275
▁Recent	-9276
▁Summer	-9277
▁appeal	-9278
▁castle	-9279
▁enthus	-9280
▁module	-9281
▁Indiana	-9282
▁Support	-9283
▁exhaust	-9284
▁factory	-9285
▁speaker	-9286
▁uniform	-9287
▁welcome	-9288
▁worship	-9289
amination	-9290
▁Training	-9291
▁barriers	-9292
▁calendar	-9293
▁counting	-9294
▁membrane	-9295
▁refriger	-9296
iterranean	-9297
ordination	-9298
▁Parkinson	-9299
▁qualities	-9300
▁recording	-9301
▁accurately	-9302
▁concerning	-9303
▁highlights	-9304
▁subsequent	-9305
▁incorporate	-9306
▁establishing	-9307
27	-9308
37	-9309
IM	-9310
SP	-9311
UR	-9312
yo	-9313
▁4-	-9314
▁IU	-9315
brew	-9316
orks	-9317
requ	-9318
ttes	-9319
▁Hit	-9320
▁gut	-9321
▁sad	-9322
oding	-9323
ulses	-9324
▁1940	-9325
▁Adam	-9326
▁Bell	-9327
▁Fred	-9328
▁Pict	-9329
▁Rest	-9330
▁pest	-9331
▁sale	-9332
coming	-9333
eroids	-9334
▁Below	-9335
▁aside	-9336
▁bills	-9337
▁lunar	-9338
▁royal	-9339
▁soils	-9340
▁stake	-9341
▁wheat	-9342
▁Includ	-9343
▁Object	-9344
▁atomic	-9345
▁desert	-9346
▁metres	-9347
▁surviv	-9348
ergarten	-9349
▁Strateg	-9350
▁husband	-9351
▁kingdom	-9352
▁optimal	-9353
▁savings	-9354
▁sending	-9355
▁athletes	-9356
▁festival	-9357
▁sleeping	-9358
▁suddenly	-9359
▁Materials	-9360
▁Testament	-9361
▁abundance	-9362
▁accompany	-9363
▁intention	-9364
▁invention	-9365
▁livestock	-9366
▁poisoning	-9367
▁virtually	-9368
▁complement	-9369
▁consisting	-9370
▁insulation	-9371
▁inspiration	-9372
()	-9373
Hz	-9374
LL	-9375
▁£	-9376
azz	-9377
eem	-9378
▁Ha	-9379
▁Jr	-9380
▁NC	-9381
▁Pa	-9382
atus	-9383
case	-9384
hour	-9385
inth	-9386
raul	-9387
yard	-9388
zone	-9389
▁(2)	-9390
▁Bru	-9391
▁Hab	-9392
▁Lar	-9393
▁MIT	-9394
▁Sem	-9395
▁Sex	-9396
claim	-9397
ilies	-9398
▁ISBN	-9399
▁Iowa	-9400
▁buck	-9401
▁bulb	-9402
▁desk	-9403
▁oils	-9404
encing	-9405
ogenic	-9406
rained	-9407
urable	-9408
urning	-9409
▁Carib	-9410
▁Chile	-9411
▁Hindu	-9412
▁Sleep	-9413
▁acute	-9414
▁drops	-9415
▁farms	-9416
▁shoes	-9417
▁taxes	-9418
▁tough	-9419
▁trail	-9420
▁uncle	-9421
▁width	-9422
▁zones	-9423
ocation	-9424
▁incent	-9425
▁joints	-9426
▁magnet	-9427
▁orders	-9428
▁pollen	-9429
▁spoken	-9430
iversary	-9431
▁Ontario	-9432
▁Philipp	-9433
▁Weather	-9434
▁browser	-9435
▁existed	-9436
▁filters	-9437
▁kidneys	-9438
▁optical	-9439
▁restric	-9440
▁viewing	-9441
▁washing	-9442
▁Kentucky	-9443
▁avoiding	-9444
▁confused	-9445
▁infrared	-9446
▁medieval	-9447
▁register	-9448
▁surgical	-9449
▁Architect	-9450
▁documented	-9451
▁transplant	-9452
▁genetically	-9453
▁occasionally	-9454
46	-9455
:30	-9456
ani	-9457
ati	-9458
lay	-9459
ugh	-9460
▁Ba	-9461
▁MA	-9462
▁TB	-9463
▁Vo	-9464
kind	-9465
mann	-9466
orus	-9467
velt	-9468
▁20,	-9469
▁Fat	-9470
▁Jun	-9471
▁Rub	-9472
▁Unt	-9473
apped	-9474
eting	-9475
ochem	-9476
ommod	-9477
▁1920	-9478
▁Jane	-9479
▁Prob	-9480
▁Team	-9481
▁Utah	-9482
▁calm	-9483
▁ride	-9484
▁wast	-9485
entine	-9486
icking	-9487
insula	-9488
▁2015.	-9489
▁Chall	-9490
▁arise	-9491
▁cyber	-9492
▁feels	-9493
▁judge	-9494
▁pitch	-9495
▁secre	-9496
▁Altern	-9497
▁Archae	-9498
▁Berlin	-9499
▁Others	-9500
▁Wilson	-9501
▁acting	-9502
▁campus	-9503
▁deeply	-9504
▁facial	-9505
▁stones	-9506
function	-9507
outheast	-9508
▁Culture	-9509
▁Related	-9510
▁defines	-9511
▁flowing	-9512
▁menstru	-9513
▁strange	-9514
▁symptom	-9515
▁Exercise	-9516
▁alphabet	-9517
▁cervical	-9518
▁designer	-9519
▁enhanced	-9520
▁explicit	-9521
▁featured	-9522
▁humanity	-9523
▁whenever	-9524
▁magnitude	-9525
▁premature	-9526
▁affordable	-9527
▁attractive	-9528
▁reasonable	-9529
▁integration	-9530
▁involvement	-9531
▁orientation	-9532
▁susceptible	-9533
▁consistently	-9534
▁Mediterranean	-9535
Be	-9536
iop	-9537
▁1)	-9538
▁48	-9539
▁Na	-9540
hops	-9541
keys	-9542
lass	-9543
warf	-9544
▁14,	-9545
▁15,	-9546
▁28,	-9547
▁Arm	-9548
▁Lee	-9549
▁Wal	-9550
akota	-9551
bered	-9552
othel	-9553
quiry	-9554
rades	-9555
thood	-9556
▁Anim	-9557
▁Crit	-9558
▁Marg	-9559
▁grey	-9560
▁hang	-9561
▁pale	-9562
▁turb	-9563
▁worn	-9564
ackson	-9565
assium	-9566
icides	-9567
spring	-9568
▁Roose	-9569
▁Third	-9570
▁alarm	-9571
▁exped	-9572
▁fungi	-9573
▁reson	-9574
▁saved	-9575
▁scope	-9576
berries	-9577
▁Future	-9578
▁breaks	-9579
▁buying	-9580
▁cannab	-9581
▁cheese	-9582
▁circul	-9583
▁dating	-9584
▁floods	-9585
▁honest	-9586
▁lining	-9587
▁plates	-9588
▁prayer	-9589
▁sodium	-9590
▁static	-9591
chnology	-9592
▁Looking	-9593
▁Matthew	-9594
▁altered	-9595
▁circles	-9596
▁conserv	-9597
▁disturb	-9598
▁varying	-9599
iological	-9600
unciation	-9601
▁distract	-9602
▁educated	-9603
▁licensed	-9604
▁mistakes	-9605
▁protects	-9606
▁striking	-9607
▁superior	-9608
▁unlikely	-9609
▁unnecess	-9610
ologically	-9611
▁Secretary	-9612
▁conflicts	-9613
▁evaluated	-9614
▁migration	-9615
▁mutations	-9616
▁seriously	-9617
▁somewhere	-9618
▁stability	-9619
▁workplace	-9620
▁Collection	-9621
▁disability	-9622
▁facilitate	-9623
▁horizontal	-9624
▁metabolism	-9625
▁networking	-9626
▁thoroughly	-9627
▁groundwater	-9628
DL	-9629
RL	-9630
],	-9631
ih	-9632
py	-9633
mod	-9634
▁2)	-9635
▁Pi	-9636
arms	-9637
erms	-9638
etch	-9639
inea	-9640
iner	-9641
olds	-9642
▁Hom	-9643
▁Sac	-9644
▁Van	-9645
▁cas	-9646
▁sew	-9647
▁wra	-9648
arter	-9649
inois	-9650
onics	-9651
white	-9652
▁Bang	-9653
▁Barb	-9654
▁Bird	-9655
▁Club	-9656
▁Eval	-9657
▁apps	-9658
▁beef	-9659
▁beet	-9660
▁gods	-9661
▁trem	-9662
▁vine	-9663
▁Links	-9664
▁flies	-9665
▁genus	-9666
▁ornam	-9667
▁persu	-9668
▁prone	-9669
▁Mother	-9670
▁Volume	-9671
▁cataly	-9672
▁dishes	-9673
▁ending	-9674
▁frozen	-9675
▁gastro	-9676
▁lenses	-9677
▁puzzle	-9678
▁snakes	-9679
▁sugars	-9680
▁tunnel	-9681
▁versus	-9682
________	-9683
ceptions	-9684
▁Abraham	-9685
▁Edition	-9686
▁Individ	-9687
▁Indones	-9688
▁Jackson	-9689
▁Primary	-9690
▁Vietnam	-9691
▁segment	-9692
▁thereby	-9693
▁Illinois	-9694
▁Practice	-9695
▁collapse	-9696
▁diagnose	-9697
▁elevated	-9698
▁enormous	-9699
▁explores	-9700
▁portrait	-9701
▁Universal	-9702
▁inherited	-9703
▁personnel	-9704
▁telephone	-9705
dimensional	-9706
▁encourages	-9707
▁geographic	-9708
▁productive	-9709
▁suggesting	-9710
▁translated	-9711
▁chemotherapy	-9712
▁evolutionary	-9713
▁implementing	-9714
▁participating	-9715
▁sophisticated	-9716
▁multiplication	-9717
97	-9718
OD	-9719
ji	-9720
▁`	-9721
10.	-9722
Com	-9723
aft	-9724
imp	-9725
osh	-9726
zym	-9727
▁("	-9728
▁AT	-9729
▁PH	-9730
Cont	-9731
east	-9732
reas	-9733
usal	-9734
▁Bob	-9735
▁jaw	-9736
▁lip	-9737
gener	-9738
ooked	-9739
▁1995	-9740
▁Move	-9741
▁Sher	-9742
▁Tech	-9743
▁dirt	-9744
▁flav	-9745
▁hung	-9746
▁todd	-9747
obally	-9748
orrect	-9749
sembly	-9750
▁2011.	-9751
▁Basic	-9752
▁Davis	-9753
▁Diego	-9754
▁Games	-9755
▁Korea	-9756
▁Lakes	-9757
▁Peace	-9758
▁artic	-9759
▁bowel	-9760
▁caffe	-9761
▁pilot	-9762
▁remem	-9763
▁repet	-9764
▁ruled	-9765
▁tubes	-9766
▁winds	-9767
section	-9768
▁Hawaii	-9769
▁attain	-9770
▁labour	-9771
▁rescue	-9772
▁shares	-9773
ceedings	-9774
▁Prevent	-9775
▁anticip	-9776
▁educate	-9777
▁evident	-9778
▁fiction	-9779
▁municip	-9780
▁victory	-9781
▁Franklin	-9782
▁Minister	-9783
▁absorbed	-9784
▁advances	-9785
▁arteries	-9786
▁cellular	-9787
▁certific	-9788
▁entrance	-9789
▁forecast	-9790
▁handling	-9791
▁philosop	-9792
▁Antarctic	-9793
▁abandoned	-9794
▁butterfly	-9795
▁continent	-9796
▁objective	-9797
▁telescope	-9798
▁Assessment	-9799
▁Guidelines	-9800
▁boundaries	-9801
▁engagement	-9802
▁requirement	-9803
▁considerable	-9804
▁dramatically	-9805
▁expectations	-9806
▁incorporated	-9807
▁manufacturer	-9808
GE	-9809
km	-9810
400	-9811
bro	-9812
tte	-9813
▁OS	-9814
Read	-9815
agus	-9816
anth	-9817
obia	-9818
pack	-9819
rons	-9820
thur	-9821
uity	-9822
▁12.	-9823
▁Enc	-9824
▁Ten	-9825
▁dow	-9826
▁hip	-9827
▁jew	-9828
▁por	-9829
abeth	-9830
inery	-9831
uster	-9832
▁Lind	-9833
▁Road	-9834
▁ants	-9835
▁bark	-9836
▁evil	-9837
▁hide	-9838
▁radi	-9839
▁Brook	-9840
▁Marsh	-9841
▁Short	-9842
▁cater	-9843
▁comet	-9844
▁rehab	-9845
▁rooms	-9846
▁trick	-9847
endment	-9848
fulness	-9849
inflamm	-9850
itarian	-9851
quality	-9852
▁Hebrew	-9853
▁Taking	-9854
▁colony	-9855
▁cooked	-9856
▁crimes	-9857
▁grants	-9858
▁heaven	-9859
▁hunger	-9860
▁manual	-9861
▁recall	-9862
▁resemb	-9863
▁slides	-9864
lastname	-9865
rapeutic	-9866
specific	-9867
▁Present	-9868
▁extinct	-9869
▁highway	-9870
▁summary	-9871
▁accommod	-9872
▁billions	-9873
▁commemor	-9874
▁diarrhea	-9875
▁distress	-9876
▁drainage	-9877
▁situated	-9878
▁Caribbean	-9879
▁predicted	-9880
▁strategic	-9881
▁Aboriginal	-9882
▁Philosophy	-9883
▁Statistics	-9884
▁diagnostic	-9885
▁illustrate	-9886
▁impressive	-9887
▁influences	-9888
▁wastewater	-9889
▁competitive	-9890
▁cooperation	-9891
▁preservation	-9892
▁collaborative	-9893
58	-9894
kay	-9895
▁MP	-9896
Lear	-9897
asal	-9898
oids	-9899
uman	-9900
umer	-9901
umns	-9902
▁Dam	-9903
▁Ell	-9904
▁FOR	-9905
▁Sep	-9906
▁odd	-9907
▁pap	-9908
▁pou	-9909
auses	-9910
eling	-9911
feren	-9912
ouses	-9913
rowse	-9914
▁Mess	-9915
▁Path	-9916
▁Town	-9917
▁Virt	-9918
▁beta	-9919
▁cope	-9920
▁sees	-9921
▁smok	-9922
▁vibr	-9923
arches	-9924
estion	-9925
formed	-9926
owners	-9927
▁Event	-9928
▁Party	-9929
▁Prize	-9930
▁Smart	-9931
▁bless	-9932
▁doses	-9933
▁dying	-9934
▁penet	-9935
▁reput	-9936
▁squir	-9937
▁tower	-9938
▁ultra	-9939
rennial	-9940
▁arrest	-9941
▁cycles	-9942
▁glands	-9943
▁provin	-9944
▁replic	-9945
▁storms	-9946
▁talked	-9947
▁termin	-9948
▁valley	-9949
▁Collect	-9950
▁coconut	-9951
▁engines	-9952
▁fitness	-9953
▁powered	-9954
▁turtles	-9955
efficient	-9956
▁Scottish	-9957
▁asteroid	-9958
▁feathers	-9959
▁relating	-9960
▁tracking	-9961
▁Mountains	-9962
▁Roosevelt	-9963
▁alongside	-9964
▁designing	-9965
▁dinosaurs	-9966
▁calculated	-9967
▁collecting	-9968
▁connecting	-9969
▁convenient	-9970
▁describing	-9971
▁separation	-9972
▁systematic	-9973
▁assignments	-9974
▁encouraging	-9975
▁transferred	-9976
▁Christianity	-9977
▁civilization	-9978
Gen	-9979
TML	-9980
rea	-9981
rix	-9982
sex	-9983
▁Ca	-9984
▁Kn	-9985
ewis	-9986
irms	-9987
rels	-9988
sets	-9989
▁Bio	-9990
▁Bol	-9991
▁Coc	-9992
▁Cop	-9993
▁fan	-9994
▁gau	-9995
▁joy	-9996
ausea	-9997
gebra	-9998
ppers	-9999
zymes	-10000
▁Cond	-10001
▁Norm	-10002
▁Show	-10003
▁Stay	-10004
▁auto	-10005
▁axis	-10006
▁dict	-10007
▁dish	-10008
▁gran	-10009
▁heal	-10010
▁mask	-10011
arians	-10012
asting	-10013
erness	-10014
iatric	-10015
igible	-10016
▁2011,	-10017
▁Chris	-10018
▁Clear	-10019
▁Maybe	-10020
▁Torah	-10021
▁films	-10022
▁https	-10023
▁obese	-10024
▁opens	-10025
▁rough	-10026
▁strip	-10027
▁viral	-10028
elihood	-10029
▁Course	-10030
▁Hubble	-10031
▁Portug	-10032
▁Posted	-10033
▁Visual	-10034
▁missed	-10035
▁plaque	-10036
▁propag	-10037
▁walked	-10038
▁weapon	-10039
▁Usually	-10040
▁curious	-10041
▁cycling	-10042
▁gallons	-10043
gregation	-10044
▁Lawrence	-10045
▁analyses	-10046
▁choosing	-10047
▁churches	-10048
▁dialogue	-10049
▁integral	-10050
▁promotes	-10051
▁reflects	-10052
▁severity	-10053
▁ultimate	-10054
▁Elizabeth	-10055
▁achieving	-10056
▁arguments	-10057
▁disasters	-10058
▁employers	-10059
▁reasoning	-10060
▁persistent	-10061
▁Afghanistan	-10062
▁imagination	-10063
▁alternatives	-10064
▁restrictions	-10065
▁developmental	-10066
HC	-10067
SL	-10068
di	-10069
oal	-10070
▁38	-10071
▁AP	-10072
▁Ce	-10073
▁Lo	-10074
dess	-10075
iral	-10076
lims	-10077
oard	-10078
pled	-10079
rubs	-10080
uled	-10081
▁10%	-10082
▁17,	-10083
▁Haz	-10084
▁Ult	-10085
▁Zoo	-10086
▁hop	-10087
nings	-10088
power	-10089
rimin	-10090
▁Greg	-10091
▁Happ	-10092
▁Heat	-10093
▁Rena	-10094
▁glue	-10095
▁menu	-10096
▁torn	-10097
lisher	-10098
olitan	-10099
▁Guard	-10100
▁Types	-10101
▁appet	-10102
▁embry	-10103
▁hills	-10104
▁logic	-10105
▁patch	-10106
▁queen	-10107
▁thumb	-10108
ounding	-10109
verages	-10110
▁Corpor	-10111
▁Master	-10112
▁Patric	-10113
▁Winter	-10114
▁crafts	-10115
▁divide	-10116
▁earned	-10117
▁freely	-10118
▁needle	-10119
▁poorly	-10120
▁pulled	-10121
▁rhythm	-10122
▁shadow	-10123
▁stabil	-10124
▁tackle	-10125
▁thrive	-10126
▁tongue	-10127
▁Getting	-10128
▁ethical	-10129
▁inhabit	-10130
▁moments	-10131
▁strings	-10132
▁Question	-10133
▁chapters	-10134
▁deposits	-10135
▁entitled	-10136
▁explored	-10137
▁meetings	-10138
▁organism	-10139
▁profound	-10140
▁receives	-10141
▁distances	-10142
▁gathering	-10143
▁tolerance	-10144
▁Activities	-10145
▁Additional	-10146
▁likelihood	-10147
▁navigation	-10148
▁popularity	-10149
vi	-10150
:00	-10151
ERS	-10152
iph	-10153
wik	-10154
▁(8	-10155
▁>>	-10156
▁IV	-10157
▁kg	-10158
ardo	-10159
aver	-10160
bits	-10161
iage	-10162
inte	-10163
oded	-10164
▁BBC	-10165
▁Cro	-10166
▁bor	-10167
about	-10168
aceut	-10169
aints	-10170
class	-10171
olves	-10172
plate	-10173
▁Biod	-10174
▁Bush	-10175
▁Comb	-10176
▁File	-10177
▁hall	-10178
▁lean	-10179
▁melt	-10180
▁prol	-10181
▁sail	-10182
▁tort	-10183
▁wing	-10184
aining	-10185
ductor	-10186
iances	-10187
isting	-10188
itored	-10189
person	-10190
▁Adams	-10191
▁Thank	-10192
▁boats	-10193
▁erect	-10194
▁flame	-10195
▁steep	-10196
▁stood	-10197
healthy	-10198
▁Multip	-10199
▁Proper	-10200
▁alumin	-10201
▁cooler	-10202
▁discom	-10203
▁epidem	-10204
▁meteor	-10205
▁myself	-10206
▁toxins	-10207
▁amongst	-10208
▁anthrop	-10209
▁assumed	-10210
▁biomass	-10211
▁clients	-10212
▁longest	-10213
▁neglect	-10214
▁pharmac	-10215
▁reserve	-10216
▁seasons	-10217
▁attended	-10218
▁duration	-10219
▁province	-10220
▁regulate	-10221
▁Discovery	-10222
▁Evolution	-10223
▁expanding	-10224
▁headaches	-10225
▁incidence	-10226
▁influenza	-10227
▁ownership	-10228
▁requiring	-10229
▁satisfact	-10230
▁generating	-10231
▁translation	-10232
▁organisations	-10233
68	-10234
GS	-10235
OM	-10236
].	-10237
iy	-10238
300	-10239
IST	-10240
abi	-10241
ais	-10242
olt	-10243
▁37	-10244
▁44	-10245
▁CA	-10246
▁IC	-10247
----	-10248
-200	-10249
ilia	-10250
oler	-10251
rity	-10252
type	-10253
▁Hou	-10254
▁Opt	-10255
▁dil	-10256
ahoma	-10257
ifice	-10258
iking	-10259
keley	-10260
osoph	-10261
oting	-10262
▁Hope	-10263
▁Soft	-10264
▁biof	-10265
▁butt	-10266
▁hill	-10267
▁knee	-10268
▁weed	-10269
abling	-10270
onomic	-10271
phones	-10272
▁2005,	-10273
▁Daily	-10274
▁Occup	-10275
▁chord	-10276
▁codes	-10277
▁decom	-10278
▁meter	-10279
▁pulse	-10280
▁pyram	-10281
▁rises	-10282
▁tends	-10283
discipl	-10284
imeters	-10285
ivation	-10286
▁Korean	-10287
▁Period	-10288
▁boards	-10289
▁guided	-10290
▁purple	-10291
▁ritual	-10292
▁thirty	-10293
▁timber	-10294
▁trauma	-10295
stration	-10296
▁Justice	-10297
▁Provide	-10298
▁Results	-10299
▁founder	-10300
▁payment	-10301
▁resolve	-10302
▁restaur	-10303
▁Williams	-10304
▁caffeine	-10305
▁colonial	-10306
▁disposal	-10307
▁fraction	-10308
▁geometry	-10309
▁inherent	-10310
▁meanings	-10311
▁mobility	-10312
▁monument	-10313
▁proposal	-10314
▁prospect	-10315
▁shopping	-10316
▁breakfast	-10317
▁geography	-10318
▁perceived	-10319
▁societies	-10320
▁stimulate	-10321
▁synthetic	-10322
▁appreciate	-10323
▁candidates	-10324
▁extinction	-10325
▁irrigation	-10326
▁passengers	-10327
▁registered	-10328
▁struggling	-10329
▁electronics	-10330
▁illustrated	-10331
▁architectural	-10332
▁controversial	-10333
▁interpretation	-10334
▁simultaneously	-10335
OP	-10336
ba	-10337
CSE	-10338
awa	-10339
cal	-10340
▁LA	-10341
▁PR	-10342
arth	-10343
aved	-10344
▁13,	-10345
▁250	-10346
▁Dra	-10347
▁Okl	-10348
▁Squ	-10349
▁abd	-10350
ashed	-10351
oline	-10352
parts	-10353
▁Chap	-10354
▁Grow	-10355
▁Iron	-10356
▁Site	-10357
▁bron	-10358
▁cran	-10359
▁drum	-10360
mental	-10361
ooking	-10362
raulic	-10363
▁Polit	-10364
▁Susan	-10365
▁Until	-10366
▁maxim	-10367
▁onset	-10368
▁pipes	-10369
▁sanct	-10370
▁shark	-10371
▁sinus	-10372
dominal	-10373
reprene	-10374
uilding	-10375
▁Carbon	-10376
▁Castle	-10377
▁Greece	-10378
▁Ground	-10379
▁Should	-10380
▁Weight	-10381
▁cavity	-10382
▁fought	-10383
▁fungal	-10384
▁twelve	-10385
▁update	-10386
▁Mexican	-10387
▁calorie	-10388
▁colours	-10389
▁dangers	-10390
▁elderly	-10391
▁filling	-10392
▁lasting	-10393
▁minimal	-10394
▁shouldn	-10395
▁totally	-10396
▁veterin	-10397
▁Resource	-10398
▁Syndrome	-10399
▁boundary	-10400
▁brothers	-10401
▁displays	-10402
▁elephant	-10403
▁engineer	-10404
▁memories	-10405
▁missions	-10406
▁Alexander	-10407
▁Available	-10408
▁Different	-10409
▁appointed	-10410
▁firstname	-10411
▁metabolic	-10412
▁monitored	-10413
▁obviously	-10414
▁Democratic	-10415
▁absorption	-10416
▁completion	-10417
▁compressed	-10418
96	-10419
IE	-10420
ols	-10421
▁7,	-10422
▁CT	-10423
▁EM	-10424
▁IT	-10425
AIDS	-10426
bury	-10427
enny	-10428
even	-10429
itus	-10430
link	-10431
weed	-10432
▁(17	-10433
▁11.	-10434
▁140	-10435
▁2.5	-10436
▁22,	-10437
▁Pul	-10438
▁Som	-10439
▁Wel	-10440
▁fox	-10441
▁wax	-10442
ATION	-10443
found	-10444
gered	-10445
ician	-10446
▁Cape	-10447
▁Case	-10448
▁HTML	-10449
▁Sens	-10450
▁clot	-10451
▁dism	-10452
▁duck	-10453
▁frog	-10454
▁quad	-10455
▁tang	-10456
othing	-10457
rophic	-10458
▁Colon	-10459
▁Produ	-10460
▁amino	-10461
▁chips	-10462
▁gland	-10463
▁paths	-10464
▁quote	-10465
▁spoke	-10466
▁stuck	-10467
▁talks	-10468
▁wells	-10469
atories	-10470
hematic	-10471
▁burden	-10472
▁drives	-10473
▁exceed	-10474
▁peanut	-10475
▁picked	-10476
▁poster	-10477
▁routes	-10478
▁washed	-10479
▁weaken	-10480
▁Besides	-10481
▁Element	-10482
▁Imagine	-10483
▁Improve	-10484
▁Mission	-10485
▁Quality	-10486
▁interfe	-10487
▁travels	-10488
ilitation	-10489
▁Assembly	-10490
▁fluoride	-10491
▁managers	-10492
▁Extension	-10493
▁Meanwhile	-10494
▁combining	-10495
▁committee	-10496
▁democracy	-10497
▁hazardous	-10498
▁prolonged	-10499
▁reinforce	-10500
▁conducting	-10501
▁dimensions	-10502
▁infectious	-10503
▁quantities	-10504
▁Renaissance	-10505
▁transparent	-10506
▁vaccination	-10507
▁accomplished	-10508
▁calculations	-10509
▁capabilities	-10510
▁continuously	-10511
▁representative	-10512
!)	-10513
42	-10514
47	-10515
DR	-10516
Ds	-10517
PT	-10518
SI	-10519
Pro	-10520
arn	-10521
def	-10522
ked	-10523
zer	-10524
▁ft	-10525
aine	-10526
also	-10527
asia	-10528
cled	-10529
engu	-10530
ikes	-10531
neum	-10532
opor	-10533
othy	-10534
▁178	-10535
▁30%	-10536
▁Cit	-10537
▁Had	-10538
▁Lib	-10539
▁Pit	-10540
▁Six	-10541
▁ecl	-10542
▁pod	-10543
▁rac	-10544
ctica	-10545
ctory	-10546
depth	-10547
ospel	-10548
rying	-10549
▁1998	-10550
▁AIDS	-10551
▁Cand	-10552
▁Join	-10553
▁Live	-10554
▁Requ	-10555
▁Stra	-10556
▁atom	-10557
▁bats	-10558
▁beds	-10559
▁irre	-10560
acular	-10561
aneous	-10562
▁2007,	-10563
▁2008,	-10564
▁Award	-10565
▁Chief	-10566
▁Lewis	-10567
▁Relig	-10568
▁anten	-10569
▁pests	-10570
▁reign	-10571
▁snack	-10572
▁toile	-10573
▁veins	-10574
▁Argent	-10575
▁Editor	-10576
▁essays	-10577
▁favour	-10578
▁interm	-10579
▁nurses	-10580
▁phases	-10581
▁radius	-10582
▁repeat	-10583
▁revers	-10584
▁slight	-10585
▁statue	-10586
breaking	-10587
esterday	-10588
▁Monitor	-10589
▁closest	-10590
▁compete	-10591
▁erosion	-10592
▁forever	-10593
▁ordered	-10594
▁relieve	-10595
▁Oklahoma	-10596
▁commands	-10597
▁implants	-10598
▁minister	-10599
▁password	-10600
▁rational	-10601
▁realized	-10602
▁traveled	-10603
▁Retrieved	-10604
▁Typically	-10605
▁converted	-10606
▁realistic	-10607
▁relatives	-10608
▁thickness	-10609
▁Curriculum	-10610
▁discomfort	-10611
▁separately	-10612
▁structural	-10613
▁anniversary	-10614
▁importantly	-10615
▁limitations	-10616
▁coordination	-10617
FS	-10618
Le	-10619
.).	-10620
Net	-10621
fam	-10622
lem	-10623
▁$2	-10624
▁..	-10625
▁85	-10626
▁Aw	-10627
▁Cr	-10628
▁Dy	-10629
▁iP	-10630
▁ow	-10631
aded	-10632
enti	-10633
ocal	-10634
tery	-10635
▁23,	-10636
▁Hay	-10637
▁Jac	-10638
▁Ray	-10639
▁Run	-10640
atile	-10641
aware	-10642
child	-10643
iants	-10644
itate	-10645
oving	-10646
rones	-10647
▁1997	-10648
▁Rail	-10649
▁Term	-10650
▁adul	-10651
▁bush	-10652
▁cram	-10653
▁deaf	-10654
▁syll	-10655
▁till	-10656
▁wake	-10657
imeter	-10658
income	-10659
ishers	-10660
ployed	-10661
▁2,000	-10662
▁Right	-10663
▁Share	-10664
▁artif	-10665
▁curve	-10666
▁frust	-10667
▁inequ	-10668
▁melan	-10669
▁obser	-10670
▁valve	-10671
ishment	-10672
rasound	-10673
ruption	-10674
▁Applic	-10675
▁Declar	-10676
▁Indeed	-10677
▁Rather	-10678
▁Theory	-10679
▁argued	-10680
▁bought	-10681
▁census	-10682
▁clinic	-10683
▁locate	-10684
▁neural	-10685
▁prints	-10686
▁regime	-10687
▁sacred	-10688
formance	-10689
ordinary	-10690
restrial	-10691
▁100,000	-10692
▁Emperor	-10693
▁columns	-10694
▁emotion	-10695
▁markers	-10696
▁privacy	-10697
▁Behavior	-10698
▁Economic	-10699
▁Everyone	-10700
▁dominant	-10701
▁equipped	-10702
▁graphics	-10703
▁Valentine	-10704
▁confusion	-10705
▁decreases	-10706
▁examining	-10707
▁promising	-10708
▁entreprene	-10709
▁incredible	-10710
▁indicators	-10711
inflammatory	-10712
▁conclusions	-10713
▁disciplines	-10714
▁administered	-10715
▁instructional	-10716
▁archaeological	-10717
,’	-10718
.;	-10719
9%	-10720
93	-10721
gon	-10722
han	-10723
lux	-10724
xic	-10725
▁42	-10726
▁64	-10727
▁Hi	-10728
▁RA	-10729
enda	-10730
okyo	-10731
ooks	-10732
risk	-10733
rium	-10734
uana	-10735
wall	-10736
▁13.	-10737
▁19,	-10738
▁24,	-10739
▁Fed	-10740
▁Fun	-10741
▁Pow	-10742
▁Rab	-10743
▁jar	-10744
▁wed	-10745
aiwan	-10746
grade	-10747
isted	-10748
ollen	-10749
▁1999	-10750
▁Ages	-10751
▁Bern	-10752
▁Jack	-10753
▁Real	-10754
▁beam	-10755
▁bind	-10756
▁brid	-10757
▁calc	-10758
▁fles	-10759
▁Corps	-10760
▁aspir	-10761
▁caves	-10762
▁cliff	-10763
▁coral	-10764
▁dwarf	-10765
▁edges	-10766
▁excav	-10767
▁lingu	-10768
▁memor	-10769
▁satur	-10770
▁wires	-10771
compass	-10772
feeding	-10773
theless	-10774
▁Darwin	-10775
▁Hitler	-10776
▁Muslim	-10777
▁Queens	-10778
▁Senate	-10779
▁Sweden	-10780
▁compos	-10781
▁export	-10782
▁makers	-10783
oporosis	-10784
▁Gallery	-10785
▁Iceland	-10786
▁diagram	-10787
▁empower	-10788
▁ensures	-10789
▁foliage	-10790
▁monthly	-10791
▁outline	-10792
▁reinfor	-10793
▁scholar	-10794
▁surgeon	-10795
▁utilize	-10796
ineteenth	-10797
▁Advanced	-10798
▁assessed	-10799
▁creature	-10800
▁fragment	-10801
▁inserted	-10802
▁seasonal	-10803
▁smallest	-10804
▁accidents	-10805
▁activated	-10806
▁workshops	-10807
▁Antarctica	-10808
▁Convention	-10809
▁newspapers	-10810
▁Mathematics	-10811
▁appointment	-10812
▁distinctive	-10813
▁progression	-10814
▁statistical	-10815
▁therapeutic	-10816
▁contamination	-10817
▁distinguished	-10818
PDF	-10819
kal	-10820
rec	-10821
sor	-10822
two	-10823
aret	-10824
nest	-10825
plex	-10826
▁16,	-10827
▁30,	-10828
▁Cab	-10829
▁Ele	-10830
▁Ent	-10831
▁SQL	-10832
▁Son	-10833
▁Was	-10834
▁ate	-10835
▁ber	-10836
▁ore	-10837
after	-10838
amine	-10839
athan	-10840
birds	-10841
isons	-10842
ogram	-10843
oning	-10844
xious	-10845
▁Deep	-10846
▁Duke	-10847
▁Ever	-10848
▁Jean	-10849
▁Kind	-10850
▁Link	-10851
▁Perm	-10852
▁Rose	-10853
▁Wars	-10854
▁pole	-10855
▁pots	-10856
▁tape	-10857
▁tear	-10858
ifting	-10859
orious	-10860
swered	-10861
vasive	-10862
▁Const	-10863
▁Parks	-10864
▁Signs	-10865
▁Staff	-10866
▁Upper	-10867
▁embed	-10868
▁float	-10869
▁mucus	-10870
▁nests	-10871
▁oxide	-10872
▁throw	-10873
▁trips	-10874
▁Nation	-10875
▁Planet	-10876
▁Saturn	-10877
▁edited	-10878
▁fallen	-10879
▁indoor	-10880
▁mixing	-10881
▁summar	-10882
▁Islamic	-10883
▁License	-10884
▁Muslims	-10885
▁abdomen	-10886
▁awarded	-10887
▁barrier	-10888
▁cheaper	-10889
▁deliber	-10890
▁descend	-10891
▁enzymes	-10892
▁extends	-10893
▁locally	-10894
▁phrases	-10895
▁privile	-10896
▁relates	-10897
▁spatial	-10898
▁tension	-10899
▁trading	-10900
▁abundant	-10901
▁readings	-10902
▁severely	-10903
▁Scientist	-10904
▁Telescope	-10905
▁guarantee	-10906
▁intensive	-10907
▁limestone	-10908
▁offspring	-10909
▁replacing	-10910
▁uncomfort	-10911
▁Educational	-10912
▁frequencies	-10913
▁unnecessary	-10914
▁neurological	-10915
▁reproduction	-10916
▁documentation	-10917
5)	-10918
91	-10919
See	-10920
alo	-10921
aud	-10922
aug	-10923
eps	-10924
ket	-10925
uru	-10926
was	-10927
▁Hu	-10928
▁Os	-10929
▁mg	-10930
ESCO	-10931
acon	-10932
anna	-10933
atas	-10934
conn	-10935
fire	-10936
gged	-10937
iens	-10938
omot	-10939
thal	-10940
▁(10	-10941
▁18,	-10942
▁21,	-10943
▁25,	-10944
▁27,	-10945
▁29,	-10946
▁Ark	-10947
▁Bor	-10948
▁Bot	-10949
▁Jon	-10950
▁Lay	-10951
▁Rus	-10952
▁cer	-10953
▁jet	-10954
lical	-10955
▁Alph	-10956
▁Anne	-10957
▁Eric	-10958
▁Holy	-10959
▁Nurs	-10960
▁bike	-10961
▁bits	-10962
▁cycl	-10963
▁damp	-10964
▁dece	-10965
▁pref	-10966
advant	-10967
headed	-10968
iative	-10969
robial	-10970
ysical	-10971
▁Adult	-10972
▁Flore	-10973
▁Night	-10974
▁Nobel	-10975
▁Trade	-10976
▁Years	-10977
▁panic	-10978
▁radar	-10979
▁Albert	-10980
▁builds	-10981
▁differ	-10982
▁labels	-10983
▁mirror	-10984
▁render	-10985
▁submit	-10986
▁Stephen	-10987
▁Surgery	-10988
▁Written	-10989
▁caution	-10990
▁invited	-10991
▁passive	-10992
▁placing	-10993
▁shuttle	-10994
▁Literacy	-10995
▁Recently	-10996
▁clusters	-10997
▁examines	-10998
▁periodic	-10999
▁rotation	-11000
▁speakers	-11001
▁thorough	-11002
▁trillion	-11003
▁Cathedral	-11004
▁Northwest	-11005
▁discusses	-11006
▁economics	-11007
▁equations	-11008
▁injection	-11009
▁packaging	-11010
▁pulmonary	-11011
▁residence	-11012
▁returning	-11013
▁survivors	-11014
otechnology	-11015
▁apparently	-11016
▁landscapes	-11017
▁restricted	-11018
▁adolescents	-11019
▁destination	-11020
▁enforcement	-11021
▁influential	-11022
▁concentrated	-11023
▁investigated	-11024
At	-11025
▁”	-11026
-16	-11027
psy	-11028
rue	-11029
vae	-11030
▁2-	-11031
▁AI	-11032
▁Es	-11033
▁NG	-11034
date	-11035
imen	-11036
oche	-11037
they	-11038
this	-11039
uris	-11040
▁Fer	-11041
▁Mrs	-11042
▁Oil	-11043
▁Sky	-11044
urred	-11045
▁Love	-11046
▁inev	-11047
▁peer	-11048
▁pose	-11049
▁silk	-11050
▁soul	-11051
▁tied	-11052
▁tsun	-11053
giving	-11054
▁Along	-11055
▁Beach	-11056
▁Clark	-11057
▁Schol	-11058
▁Tokyo	-11059
▁balls	-11060
▁chron	-11061
▁deals	-11062
▁gloss	-11063
▁inver	-11064
▁lying	-11065
▁olive	-11066
▁peers	-11067
▁rocky	-11068
▁spill	-11069
onymous	-11070
▁Dakota	-11071
▁Eating	-11072
▁Norway	-11073
▁Series	-11074
▁UNESCO	-11075
▁carcin	-11076
▁gentle	-11077
▁plasma	-11078
▁recipe	-11079
▁retrie	-11080
▁telesc	-11081
▁traged	-11082
articles	-11083
▁Alcohol	-11084
▁Explain	-11085
▁Growing	-11086
▁arrival	-11087
▁injured	-11088
▁partial	-11089
▁spotted	-11090
▁winning	-11091
▁worried	-11092
istically	-11093
osophical	-11094
▁Activity	-11095
▁occupied	-11096
▁organize	-11097
▁unwanted	-11098
▁specified	-11099
▁voluntary	-11100
▁watershed	-11101
▁Throughout	-11102
▁antibiotic	-11103
▁antibodies	-11104
▁attributed	-11105
▁opposition	-11106
▁conjunction	-11107
▁devastating	-11108
▁participated	-11109
▁representatives	-11110
Ad	-11111
De	-11112
auc	-11113
irs	-11114
sur	-11115
▁46	-11116
▁AB	-11117
▁Ak	-11118
▁NY	-11119
ethe	-11120
igma	-11121
▁Eat	-11122
▁Him	-11123
▁Syd	-11124
▁Tax	-11125
▁Tut	-11126
▁mol	-11127
plets	-11128
rator	-11129
▁1900	-11130
▁Gand	-11131
▁Pope	-11132
▁bags	-11133
▁frag	-11134
▁leak	-11135
▁merg	-11136
▁rope	-11137
imedia	-11138
▁2013.	-11139
▁Allen	-11140
▁Begin	-11141
▁Birth	-11142
▁Diagn	-11143
▁Pharm	-11144
▁Prime	-11145
▁Trees	-11146
▁Youth	-11147
▁camps	-11148
▁frost	-11149
▁poore	-11150
▁stack	-11151
▁stops	-11152
▁thank	-11153
▁truck	-11154
aternal	-11155
▁Better	-11156
▁Reduce	-11157
▁Romans	-11158
▁absent	-11159
▁arrive	-11160
▁borrow	-11161
▁convin	-11162
▁dinner	-11163
▁hearts	-11164
▁ignore	-11165
▁insert	-11166
▁intact	-11167
▁palace	-11168
▁senses	-11169
activity	-11170
▁Houston	-11171
▁Olympic	-11172
▁Therapy	-11173
▁acquire	-11174
▁avoided	-11175
▁bearing	-11176
▁herself	-11177
▁horizon	-11178
▁license	-11179
▁profile	-11180
▁prosper	-11181
▁spreads	-11182
▁texture	-11183
▁Ministry	-11184
▁answered	-11185
▁appetite	-11186
▁cavities	-11187
▁ceremony	-11188
▁declined	-11189
▁deterior	-11190
▁expenses	-11191
▁indirect	-11192
▁portions	-11193
▁restored	-11194
▁tendency	-11195
▁utilized	-11196
▁Transport	-11197
▁attitudes	-11198
▁attracted	-11199
▁disadvant	-11200
▁encompass	-11201
▁inclusion	-11202
▁inflation	-11203
▁strengths	-11204
▁suspected	-11205
▁Christians	-11206
▁Depression	-11207
▁Industrial	-11208
▁conversion	-11209
▁impairment	-11210
▁purchasing	-11211
▁toothpaste	-11212
▁Confederate	-11213
▁Sustainable	-11214
▁butterflies	-11215
▁flexibility	-11216
1%	-11217
MM	-11218
WS	-11219
da	-11220
Art	-11221
Res	-11222
afe	-11223
cts	-11224
gro	-11225
lie	-11226
upp	-11227
you	-11228
▁Du	-11229
▁Ms	-11230
▁SC	-11231
agen	-11232
amic	-11233
anic	-11234
anol	-11235
chin	-11236
high	-11237
iary	-11238
ioma	-11239
ipse	-11240
mill	-11241
raid	-11242
role	-11243
stra	-11244
urse	-11245
▁90%	-11246
▁Box	-11247
▁Gre	-11248
▁Kim	-11249
▁Mos	-11250
▁Nap	-11251
▁arc	-11252
▁jun	-11253
▁oun	-11254
▁sau	-11255
▁sch	-11256
▁sib	-11257
▁tab	-11258
ccoli	-11259
enced	-11260
heres	-11261
shore	-11262
▁Ball	-11263
▁Pear	-11264
▁Poll	-11265
▁Shel	-11266
▁Tell	-11267
▁aest	-11268
▁anat	-11269
▁carp	-11270
▁duty	-11271
▁encl	-11272
▁erad	-11273
▁font	-11274
▁indo	-11275
▁obst	-11276
▁rows	-11277
▁ster	-11278
▁yard	-11279
letter	-11280
otypes	-11281
school	-11282
screen	-11283
threat	-11284
uclear	-11285
▁Apple	-11286
▁Fried	-11287
▁Tests	-11288
▁Urban	-11289
▁careg	-11290
▁dozen	-11291
▁exams	-11292
▁fault	-11293
▁fears	-11294
▁herbs	-11295
▁sorts	-11296
▁straw	-11297
▁warts	-11298
▁Bridge	-11299
▁Clinic	-11300
▁Luther	-11301
▁Record	-11302
▁dermat	-11303
▁emerge	-11304
▁folder	-11305
▁precip	-11306
▁pushed	-11307
▁rating	-11308
▁robust	-11309
▁sharks	-11310
▁sovere	-11311
▁steady	-11312
▁tribes	-11313
▁Content	-11314
▁Cornell	-11315
▁blocked	-11316
▁broader	-11317
▁devoted	-11318
▁exports	-11319
▁glasses	-11320
▁inspire	-11321
▁liquids	-11322
▁pushing	-11323
▁trapped	-11324
▁tremend	-11325
ropolitan	-11326
▁Berkeley	-11327
▁Personal	-11328
▁accessed	-11329
▁adoption	-11330
▁enabling	-11331
▁minority	-11332
▁withdraw	-11333
controlled	-11334
▁Chemistry	-11335
▁Depending	-11336
▁inventory	-11337
▁machinery	-11338
▁partially	-11339
▁potassium	-11340
▁searching	-11341
▁Literature	-11342
▁Pediatrics	-11343
▁compassion	-11344
▁complexity	-11345
▁determines	-11346
▁Observatory	-11347
▁Proceedings	-11348
▁compression	-11349
▁concentrate	-11350
▁degradation	-11351
▁progressive	-11352
▁uncertainty	-11353
▁unemployment	-11354
▁establishment	-11355
!"	-11356
43	-11357
49	-11358
By	-11359
OH	-11360
yr	-11361
zo	-11362
.),	-11363
2).	-11364
adi	-11365
dig	-11366
orb	-11367
▁DV	-11368
▁Fa	-11369
▁Ho	-11370
▁SO	-11371
amil	-11372
exts	-11373
fill	-11374
nedy	-11375
uilt	-11376
▁Mes	-11377
▁Oak	-11378
▁Sav	-11379
▁Sov	-11380
▁WHO	-11381
▁hur	-11382
▁soy	-11383
▁tin	-11384
▁yes	-11385
athic	-11386
eared	-11387
named	-11388
namon	-11389
▁Game	-11390
▁Loss	-11391
▁Prep	-11392
▁Very	-11393
▁asks	-11394
▁cups	-11395
▁cust	-11396
▁lift	-11397
▁loan	-11398
▁mate	-11399
▁orch	-11400
▁tech	-11401
▁toll	-11402
iences	-11403
immune	-11404
orters	-11405
strong	-11406
▁Analy	-11407
▁Birds	-11408
▁Could	-11409
▁Innov	-11410
▁Liber	-11411
▁clues	-11412
▁draft	-11413
▁fifty	-11414
▁incom	-11415
▁overs	-11416
▁paste	-11417
▁schem	-11418
▁sheep	-11419
▁spell	-11420
▁tired	-11421
▁Census	-11422
▁Easter	-11423
▁Father	-11424
▁Memory	-11425
▁Nether	-11426
▁Sydney	-11427
▁Territ	-11428
▁Things	-11429
▁anemia	-11430
▁banned	-11431
▁behave	-11432
▁coding	-11433
▁courts	-11434
▁explos	-11435
▁pencil	-11436
▁predom	-11437
▁subtle	-11438
▁terror	-11439
▁turtle	-11440
▁whilst	-11441
▁skilled	-11442
▁strands	-11443
▁strikes	-11444
itzerland	-11445
▁Egyptian	-11446
▁Partners	-11447
▁appropri	-11448
▁currency	-11449
▁manifest	-11450
▁pleasure	-11451
▁shoulder	-11452
▁timeline	-11453
▁tomatoes	-11454
▁Awareness	-11455
▁adventure	-11456
▁authentic	-11457
▁comprises	-11458
▁furniture	-11459
▁hydraulic	-11460
▁incorrect	-11461
▁invisible	-11462
▁menstrual	-11463
▁prevalent	-11464
▁adaptation	-11465
▁critically	-11466
▁explaining	-11467
▁microscope	-11468
▁substitute	-11469
▁antioxidant	-11470
▁dehydration	-11471
▁introducing	-11472
▁specialists	-11473
▁Agricultural	-11474
▁Biodiversity	-11475
▁stakeholders	-11476
▁comprehension	-11477
▁traditionally	-11478
▁uncomfortable	-11479
Ed	-11480
NU	-11481
OV	-11482
”)	-11483
One	-11484
esy	-11485
igs	-11486
nia	-11487
uum	-11488
▁3)	-11489
▁33	-11490
▁56	-11491
▁EV	-11492
▁SA	-11493
▁Tu	-11494
▁rh	-11495
That	-11496
ador	-11497
hard	-11498
icut	-11499
illy	-11500
irit	-11501
omon	-11502
pace	-11503
pine	-11504
rost	-11505
▁160	-11506
▁Ban	-11507
▁Lat	-11508
▁Mit	-11509
▁Nan	-11510
▁PRO	-11511
▁Pil	-11512
▁bon	-11513
▁cyl	-11514
▁gri	-11515
▁rib	-11516
acles	-11517
angel	-11518
▁Marc	-11519
▁Pick	-11520
▁Priv	-11521
▁Snow	-11522
▁appl	-11523
▁beer	-11524
▁bowl	-11525
▁clin	-11526
▁insu	-11527
▁prun	-11528
▁scal	-11529
▁scat	-11530
▁soda	-11531
▁sore	-11532
▁tric	-11533
elsius	-11534
energy	-11535
ijuana	-11536
onents	-11537
usalem	-11538
▁2007.	-11539
▁Stone	-11540
▁Veter	-11541
▁admin	-11542
▁alert	-11543
▁anger	-11544
▁armed	-11545
▁loads	-11546
▁nasal	-11547
▁parad	-11548
▁penal	-11549
▁piano	-11550
▁poems	-11551
▁pools	-11552
entieth	-11553
illance	-11554
limited	-11555
▁Calcul	-11556
▁Nearly	-11557
▁Topics	-11558
▁cherry	-11559
▁nausea	-11560
▁notion	-11561
▁paying	-11562
▁shrubs	-11563
▁suited	-11564
▁thinks	-11565
graduate	-11566
ountered	-11567
▁Hopkins	-11568
▁Kennedy	-11569
▁Reserve	-11570
▁Subject	-11571
▁carrier	-11572
▁cleaner	-11573
▁editors	-11574
▁entries	-11575
▁implant	-11576
▁lengths	-11577
▁spirits	-11578
▁strokes	-11579
▁volumes	-11580
fficiency	-11581
▁Disorder	-11582
▁cannabis	-11583
▁globally	-11584
▁operated	-11585
▁touching	-11586
▁villages	-11587
▁biologist	-11588
▁perennial	-11589
▁placement	-11590
▁recovered	-11591
▁saturated	-11592
▁selecting	-11593
▁untreated	-11594
▁withstand	-11595
▁Electronic	-11596
▁Geographic	-11597
▁decreasing	-11598
▁officially	-11599
▁satellites	-11600
▁Traditional	-11601
▁encountered	-11602
▁highlighted	-11603
▁territories	-11604
▁overwhelming	-11605
▁surroundings	-11606
▁Communication	-11607
1-	-11608
65	-11609
8%	-11610
Bl	-11611
SR	-11612
aga	-11613
non	-11614
pus	-11615
▁47	-11616
▁BE	-11617
With	-11618
amel	-11619
comp	-11620
expl	-11621
nuts	-11622
odge	-11623
orns	-11624
oved	-11625
pill	-11626
quar	-11627
scri	-11628
uate	-11629
▁700	-11630
▁Cru	-11631
▁YOU	-11632
▁bay	-11633
▁wal	-11634
chron	-11635
graph	-11636
limin	-11637
ocent	-11638
rison	-11639
roach	-11640
▁Anth	-11641
▁Buff	-11642
▁Dead	-11643
▁Give	-11644
▁Line	-11645
▁Plus	-11646
▁Rout	-11647
▁Skin	-11648
▁chat	-11649
▁dump	-11650
▁isot	-11651
▁mart	-11652
govern	-11653
icting	-11654
ulsive	-11655
▁2009.	-11656
▁Graph	-11657
▁Radio	-11658
▁Tower	-11659
▁Would	-11660
▁anest	-11661
▁brill	-11662
▁catal	-11663
▁myths	-11664
▁ponds	-11665
▁reads	-11666
▁regen	-11667
▁rover	-11668
▁sword	-11669
▁trout	-11670
▁unpre	-11671
▁weren	-11672
riction	-11673
▁Compar	-11674
▁Newton	-11675
▁Simple	-11676
▁bitter	-11677
▁compat	-11678
▁fibers	-11679
▁forgot	-11680
▁hypert	-11681
▁larvae	-11682
▁marker	-11683
▁sister	-11684
▁subsid	-11685
▁timely	-11686
▁Animals	-11687
▁Barbara	-11688
▁Experts	-11689
▁beaches	-11690
▁careers	-11691
▁contest	-11692
▁episode	-11693
▁fossils	-11694
▁inquiry	-11695
▁notable	-11696
▁sectors	-11697
▁sensory	-11698
▁staying	-11699
organisms	-11700
▁Discover	-11701
▁Margaret	-11702
▁Particip	-11703
▁clicking	-11704
▁electrom	-11705
▁gasoline	-11706
▁mutation	-11707
▁peripher	-11708
▁precious	-11709
▁recycled	-11710
▁volcanic	-11711
▁Argentina	-11712
▁Challenge	-11713
▁Generally	-11714
▁Greenland	-11715
▁Peninsula	-11716
▁confusing	-11717
▁dominated	-11718
▁execution	-11719
▁neighbors	-11720
▁pesticide	-11721
▁precision	-11722
▁triggered	-11723
▁Biological	-11724
▁acceptable	-11725
▁developers	-11726
▁regulatory	-11727
▁Connecticut	-11728
▁Switzerland	-11729
▁Occupational	-11730
▁consciousness	-11731
▁conversations	-11732
CG	-11733
UL	-11734
▁]	-11735
aic	-11736
oil	-11737
ois	-11738
uis	-11739
yer	-11740
▁34	-11741
▁CM	-11742
▁IR	-11743
▁Li	-11744
▁SD	-11745
aths	-11746
fold	-11747
laim	-11748
ltry	-11749
ollo	-11750
only	-11751
pers	-11752
post	-11753
▁183	-11754
▁40%	-11755
▁Bon	-11756
▁Dun	-11757
▁Fri	-11758
▁Kat	-11759
▁McK	-11760
▁cel	-11761
▁tan	-11762
esium	-11763
eterm	-11764
mates	-11765
ourse	-11766
▁Body	-11767
▁Dick	-11768
▁Ford	-11769
▁Safe	-11770
▁hier	-11771
▁lets	-11772
▁sons	-11773
ighted	-11774
vation	-11775
▁2015,	-11776
▁Focus	-11777
▁Tools	-11778
▁angry	-11779
▁bands	-11780
▁champ	-11781
▁gauge	-11782
▁hosts	-11783
▁tones	-11784
▁vapor	-11785
▁verbs	-11786
iencies	-11787
osphere	-11788
▁Adults	-11789
▁Skills	-11790
▁angles	-11791
▁artery	-11792
▁blacks	-11793
▁charts	-11794
▁entity	-11795
▁nights	-11796
▁Celsius	-11797
▁Genesis	-11798
▁Overall	-11799
▁Popular	-11800
▁Updated	-11801
▁emerged	-11802
▁radical	-11803
▁revenue	-11804
▁volcano	-11805
effective	-11806
mentation	-11807
resistant	-11808
▁Planning	-11809
▁Problems	-11810
▁Universe	-11811
▁assembly	-11812
▁colorful	-11813
▁contexts	-11814
▁courtesy	-11815
▁currents	-11816
▁dynamics	-11817
▁emission	-11818
▁operator	-11819
▁sampling	-11820
▁tomorrow	-11821
vitational	-11822
▁adulthood	-11823
▁attribute	-11824
▁daughters	-11825
▁footprint	-11826
▁indicator	-11827
▁observing	-11828
▁sacrifice	-11829
▁surviving	-11830
▁teenagers	-11831
threatening	-11832
▁Elementary	-11833
▁completing	-11834
▁coordinate	-11835
▁immigrants	-11836
▁originated	-11837
▁reputation	-11838
▁telescopes	-11839
▁Corporation	-11840
▁intelligent	-11841
▁demonstration	-11842
▁classification	-11843
.1	-11844
BL	-11845
No	-11846
Te	-11847
EST	-11848
aki	-11849
ali	-11850
eat	-11851
hot	-11852
sub	-11853
umm	-11854
▁EP	-11855
▁WH	-11856
acre	-11857
amma	-11858
arer	-11859
idae	-11860
mile	-11861
oths	-11862
▁Mix	-11863
▁liz	-11864
Learn	-11865
arest	-11866
ushes	-11867
uters	-11868
▁Cold	-11869
▁Cool	-11870
▁Pack	-11871
▁cock	-11872
▁croc	-11873
▁holy	-11874
▁jack	-11875
▁nick	-11876
▁wage	-11877
aceous	-11878
iotics	-11879
prints	-11880
rative	-11881
ulates	-11882
▁Cover	-11883
▁Stage	-11884
▁alien	-11885
▁bloom	-11886
▁esoph	-11887
▁marsh	-11888
▁maths	-11889
▁mines	-11890
▁poles	-11891
▁scans	-11892
▁sends	-11893
▁woods	-11894
isition	-11895
ometers	-11896
powered	-11897
reement	-11898
▁Around	-11899
▁Arthur	-11900
▁Golden	-11901
▁Market	-11902
▁Polish	-11903
▁Senior	-11904
▁Soviet	-11905
▁Transl	-11906
▁adject	-11907
▁analog	-11908
▁carved	-11909
▁corrid	-11910
▁elabor	-11911
▁grocer	-11912
▁heated	-11913
▁hoping	-11914
▁murder	-11915
▁paints	-11916
▁perpet	-11917
▁retail	-11918
▁traces	-11919
liminary	-11920
▁Conserv	-11921
▁Express	-11922
▁Summary	-11923
▁ceiling	-11924
▁defects	-11925
▁ecology	-11926
▁enterpr	-11927
▁ignored	-11928
▁jumping	-11929
▁mounted	-11930
▁revised	-11931
▁swollen	-11932
▁temples	-11933
▁Articles	-11934
▁Chemical	-11935
▁Complete	-11936
▁Stanford	-11937
▁admitted	-11938
▁conserve	-11939
▁crossing	-11940
▁defining	-11941
▁droplets	-11942
▁navigate	-11943
▁pressing	-11944
▁shipping	-11945
▁stopping	-11946
▁surveyed	-11947
▁Jerusalem	-11948
▁attempted	-11949
▁biography	-11950
▁instances	-11951
▁outbreaks	-11952
▁portraits	-11953
▁pressures	-11954
▁referring	-11955
▁specially	-11956
▁succeeded	-11957
▁sustained	-11958
▁Originally	-11959
▁appliances	-11960
▁Communities	-11961
▁Declaration	-11962
▁achievements	-11963
▁antioxidants	-11964
▁veterinarian	-11965
▁extraordinary	-11966
67	-11967
Im	-11968
LC	-11969
Sc	-11970
jo	-11971
ALL	-11972
Col	-11973
lyn	-11974
pit	-11975
rat	-11976
uto	-11977
▁OK	-11978
...]	-11979
axis	-11980
gian	-11981
half	-11982
held	-11983
ials	-11984
nals	-11985
▁RNA	-11986
▁Rio	-11987
▁Soy	-11988
▁Sri	-11989
▁Tre	-11990
▁USB	-11991
▁gel	-11992
▁kne	-11993
▁meg	-11994
▁nom	-11995
agger	-11996
aping	-11997
color	-11998
esome	-11999
grass	-12000
ivals	-12001
▁Carl	-12002
▁Draw	-12003
▁Exec	-12004
▁FREE	-12005
▁Magn	-12006
▁Nort	-12007
▁fart	-12008
▁rept	-12009
▁sake	-12010
▁tomb	-12011
arched	-12012
cripts	-12013
teenth	-12014
terior	-12015
▁Frequ	-12016
▁Guate	-12017
▁attor	-12018
▁bases	-12019
▁basin	-12020
▁brack	-12021
▁crash	-12022
▁ghost	-12023
▁liked	-12024
▁roofs	-12025
▁worms	-12026
actions	-12027
onomous	-12028
ternoon	-12029
▁Answer	-12030
▁Simply	-12031
▁Taiwan	-12032
▁Travel	-12033
▁Vision	-12034
▁accord	-12035
▁afraid	-12036
▁baking	-12037
▁cracks	-12038
▁diesel	-12039
▁estate	-12040
▁litter	-12041
▁marble	-12042
▁novels	-12043
▁packet	-12044
▁Freedom	-12045
▁Methods	-12046
▁Montana	-12047
▁Testing	-12048
▁formats	-12049
▁grasses	-12050
▁impress	-12051
▁labeled	-12052
▁mistake	-12053
▁polymer	-12054
▁wealthy	-12055
▁weekend	-12056
▁weights	-12057
othelioma	-12058
▁Magazine	-12059
▁Regional	-12060
▁birthday	-12061
▁headache	-12062
▁invasion	-12063
▁multiply	-12064
▁Relations	-12065
▁Represent	-12066
▁artifacts	-12067
▁broadcast	-12068
▁digestion	-12069
▁fisheries	-12070
▁gardening	-12071
▁municipal	-12072
▁specimens	-12073
▁yesterday	-12074
appropriate	-12075
▁astronauts	-12076
▁cultivated	-12077
▁discussing	-12078
▁expedition	-12079
▁parameters	-12080
▁repeatedly	-12081
▁contributes	-12082
▁exclusively	-12083
▁immigration	-12084
▁investments	-12085
▁operational	-12086
▁combinations	-12087
▁explanations	-12088
▁historically	-12089
▁satisfaction	-12090
▁environmentally	-12091
2%	-12092
Go	-12093
PE	-12094
sl	-12095
▁°	-12096
-17	-12097
Don	-12098
Get	-12099
fly	-12100
law	-12101
lob	-12102
▁EN	-12103
▁Eu	-12104
▁GO	-12105
▁NS	-12106
▁tu	-12107
Tube	-12108
arse	-12109
atre	-12110
ello	-12111
inge	-12112
norm	-12113
orrh	-12114
rics	-12115
roke	-12116
sels	-12117
unks	-12118
ylon	-12119
zens	-12120
▁80%	-12121
▁Arn	-12122
▁Fle	-12123
▁GPS	-12124
▁Has	-12125
▁Hot	-12126
▁Rog	-12127
▁Syn	-12128
▁Voc	-12129
▁wre	-12130
achel	-12131
stock	-12132
▁1996	-12133
▁Camb	-12134
▁Circ	-12135
▁Coal	-12136
▁Conc	-12137
▁Fest	-12138
▁Hart	-12139
▁Lady	-12140
▁Peru	-12141
▁Verm	-12142
▁Zika	-12143
▁abol	-12144
▁aids	-12145
▁bass	-12146
▁belt	-12147
▁bicy	-12148
▁exce	-12149
▁gaps	-12150
▁keys	-12151
▁pigs	-12152
▁seas	-12153
▁sits	-12154
▁whit	-12155
arency	-12156
indeer	-12157
ocated	-12158
omatic	-12159
▁2005.	-12160
▁2008.	-12161
▁2013,	-12162
▁Omega	-12163
▁arsen	-12164
▁broke	-12165
▁downt	-12166
▁forum	-12167
▁naked	-12168
▁overt	-12169
▁recip	-12170
▁stamp	-12171
autions	-12172
itimate	-12173
▁Illust	-12174
▁Photos	-12175
▁Python	-12176
▁acoust	-12177
▁births	-12178
▁catast	-12179
▁counts	-12180
▁empire	-12181
▁fungus	-12182
▁manure	-12183
▁mating	-12184
▁miscon	-12185
▁partly	-12186
▁pursue	-12187
▁shifts	-12188
▁titled	-12189
▁towers	-12190
▁warned	-12191
▁yields	-12192
acterial	-12193
expected	-12194
▁Changes	-12195
▁Coastal	-12196
▁Russell	-12197
▁aligned	-12198
▁belongs	-12199
▁charges	-12200
▁citizen	-12201
▁combust	-12202
▁compact	-12203
▁dispers	-12204
▁enemies	-12205
▁instant	-12206
▁logical	-12207
▁nursing	-12208
▁screens	-12209
▁singing	-12210
▁tablets	-12211
▁textile	-12212
▁updates	-12213
▁Collabor	-12214
▁Database	-12215
▁Software	-12216
▁ancestor	-12217
▁arranged	-12218
▁checking	-12219
▁circuits	-12220
▁circular	-12221
▁citation	-12222
▁coloring	-12223
▁destruct	-12224
▁diabetic	-12225
▁dolphins	-12226
▁immunity	-12227
▁operates	-12228
▁payments	-12229
▁suppress	-12230
▁triggers	-12231
imicrobial	-12232
▁Curiosity	-12233
▁Knowledge	-12234
▁acknowled	-12235
▁breakdown	-12236
▁brilliant	-12237
▁comparing	-12238
▁countless	-12239
▁extending	-12240
▁fertility	-12241
▁fundament	-12242
▁integrity	-12243
▁sculpture	-12244
▁Geological	-12245
▁Indigenous	-12246
▁Psychology	-12247
▁incredibly	-12248
▁indicating	-12249
▁nineteenth	-12250
▁occupation	-12251
▁prevalence	-12252
▁sanitation	-12253
▁stretching	-12254
▁distinction	-12255
▁earthquakes	-12256
▁politicians	-12257
▁threatening	-12258
▁illustration	-12259
▁publications	-12260
Sh	-12261
sk	-12262
-15	-12263
1).	-12264
4).	-12265
erb	-12266
lla	-12267
odd	-12268
▁Bh	-12269
chem	-12270
eded	-12271
erus	-12272
iley	-12273
iper	-12274
oked	-12275
olid	-12276
verb	-12277
▁Aer	-12278
▁CBD	-12279
▁LED	-12280
▁Pap	-12281
▁dye	-12282
▁rav	-12283
allas	-12284
count	-12285
first	-12286
front	-12287
icked	-12288
igned	-12289
inton	-12290
istle	-12291
ylene	-12292
▁2019	-12293
▁Born	-12294
▁Brid	-12295
▁Nile	-12296
▁Trib	-12297
▁Vacc	-12298
▁arom	-12299
▁hasn	-12300
▁pupp	-12301
▁rear	-12302
▁seiz	-12303
▁sink	-12304
▁worm	-12305
aments	-12306
ifiers	-12307
posure	-12308
sonian	-12309
▁Imper	-12310
▁Pages	-12311
▁alkal	-12312
▁candy	-12313
▁datas	-12314
▁frogs	-12315
▁lasts	-12316
▁meets	-12317
▁seeks	-12318
angular	-12319
ictions	-12320
▁Determ	-12321
▁Gandhi	-12322
▁acidic	-12323
▁aggreg	-12324
▁capita	-12325
▁defeat	-12326
▁farmer	-12327
▁lasted	-12328
▁margin	-12329
▁movies	-12330
▁rabies	-12331
▁urgent	-12332
▁voting	-12333
▁Comment	-12334
▁Denmark	-12335
▁Ecology	-12336
▁Leaders	-12337
▁Patrick	-12338
▁Virtual	-12339
▁bridges	-12340
▁cardiac	-12341
▁checked	-12342
▁chewing	-12343
▁cookies	-12344
▁damages	-12345
▁editing	-12346
▁tsunami	-12347
sequently	-12348
▁Creating	-12349
▁Evidence	-12350
▁aluminum	-12351
▁matching	-12352
▁officers	-12353
▁producer	-12354
▁releases	-12355
▁sexually	-12356
▁uncommon	-12357
▁writings	-12358
▁candidate	-12359
▁distribut	-12360
▁harvested	-12361
▁investors	-12362
▁motivated	-12363
▁regulated	-12364
▁scheduled	-12365
▁Initiative	-12366
▁cigarettes	-12367
▁eliminated	-12368
▁publishing	-12369
▁Interactive	-12370
▁approaching	-12371
▁outstanding	-12372
▁reconstruct	-12373
▁transformed	-12374
▁descriptions	-12375
▁perspectives	-12376
▁recreational	-12377
▁unfortunately	-12378
.:	-12379
6%	-12380
CP	-12381
FC	-12382
MD	-12383
Qu	-12384
ko	-12385
800	-12386
ESS	-12387
elp	-12388
oga	-12389
ths	-12390
uty	-12391
▁Ah	-12392
▁Ow	-12393
▁Si	-12394
▁oy	-12395
/200	-12396
asis	-12397
cler	-12398
etal	-12399
gram	-12400
hyth	-12401
inse	-12402
ivia	-12403
lear	-12404
olas	-12405
olly	-12406
▁14.	-12407
▁Dub	-12408
▁Ger	-12409
▁Ira	-12410
▁alb	-12411
▁pix	-12412
▁twe	-12413
astes	-12414
eland	-12415
iolet	-12416
rible	-12417
storm	-12418
vance	-12419
▁Acid	-12420
▁Baby	-12421
▁Burn	-12422
▁Cart	-12423
▁Clar	-12424
▁Hunt	-12425
▁Nazi	-12426
▁Noah	-12427
▁Vien	-12428
▁Want	-12429
▁bars	-12430
▁coin	-12431
▁dams	-12432
▁dorm	-12433
▁intr	-12434
▁ions	-12435
▁lapt	-12436
▁pear	-12437
▁tags	-12438
engine	-12439
lihood	-12440
roleum	-12441
unning	-12442
▁5,000	-12443
▁Front	-12444
▁Order	-12445
▁crowd	-12446
▁dirty	-12447
▁disag	-12448
▁merch	-12449
▁nails	-12450
▁nanop	-12451
▁pries	-12452
▁tense	-12453
estinal	-12454
writing	-12455
▁Beyond	-12456
▁Concer	-12457
▁Howard	-12458
▁Orange	-12459
▁Parent	-12460
▁Spirit	-12461
▁argues	-12462
▁behalf	-12463
▁duties	-12464
▁exclud	-12465
▁garlic	-12466
▁hardly	-12467
▁hungry	-12468
▁loaded	-12469
▁packed	-12470
▁retard	-12471
▁shells	-12472
▁thesis	-12473
▁viable	-12474
atherine	-12475
cedented	-12476
quarters	-12477
▁Anthony	-12478
▁Consult	-12479
▁Francis	-12480
▁Seattle	-12481
▁collaps	-12482
▁courage	-12483
▁garbage	-12484
▁goddess	-12485
▁indoors	-12486
▁matches	-12487
▁nucleus	-12488
▁retired	-12489
▁servers	-12490
▁shortly	-12491
▁tourism	-12492
▁watched	-12493
ographies	-12494
operative	-12495
▁Benefits	-12496
▁Diseases	-12497
▁climates	-12498
▁combines	-12499
▁drilling	-12500
▁embedded	-12501
▁floating	-12502
▁friction	-12503
▁modeling	-12504
▁pointing	-12505
▁prostate	-12506
▁segments	-12507
▁Similarly	-12508
▁consensus	-12509
▁delicious	-12510
▁disappear	-12511
▁hopefully	-12512
▁interfere	-12513
▁intestine	-12514
▁mechanics	-12515
▁planetary	-12516
▁projected	-12517
▁sequences	-12518
▁twentieth	-12519
▁architects	-12520
▁definitive	-12521
▁democratic	-12522
▁impression	-12523
▁interviews	-12524
▁introduces	-12525
▁meditation	-12526
▁presenting	-12527
▁Philippines	-12528
▁bloodstream	-12529
▁correlation	-12530
▁eliminating	-12531
▁precautions	-12532
▁spectacular	-12533
▁compensation	-12534
▁unprecedented	-12535
4-	-12536
KE	-12537
KS	-12538
PM	-12539
iw	-12540
ís	-12541
Can	-12542
Des	-12543
fig	-12544
fil	-12545
nty	-12546
rac	-12547
▁HT	-12548
atto	-12549
five	-12550
food	-12551
heum	-12552
pson	-12553
uine	-12554
walk	-12555
▁Buy	-12556
▁Cho	-12557
▁Hon	-12558
▁Tan	-12559
▁dyn	-12560
▁mad	-12561
▁nod	-12562
▁ric	-12563
acity	-12564
adays	-12565
ahren	-12566
apore	-12567
bling	-12568
onomy	-12569
opard	-12570
osynt	-12571
otine	-12572
owing	-12573
tosis	-12574
▁Blog	-12575
▁Mike	-12576
▁Tele	-12577
▁athe	-12578
▁bulk	-12579
▁depr	-12580
▁fate	-12581
▁trim	-12582
arcoal	-12583
commun	-12584
comput	-12585
edical	-12586
enders	-12587
esteem	-12588
ograms	-12589
▁Apart	-12590
▁cargo	-12591
▁coinc	-12592
▁deriv	-12593
▁diver	-12594
▁draws	-12595
▁flora	-12596
▁grave	-12597
▁hepat	-12598
▁illum	-12599
▁pneum	-12600
▁reefs	-12601
▁stool	-12602
▁trunk	-12603
▁verse	-12604
assment	-12605
forward	-12606
▁Almost	-12607
▁Anyone	-12608
▁Athens	-12609
▁Buddha	-12610
▁Recomm	-12611
▁Return	-12612
▁autumn	-12613
▁costly	-12614
▁legacy	-12615
▁modify	-12616
▁patent	-12617
▁snacks	-12618
▁turkey	-12619
▁voices	-12620
▁Picture	-12621
▁anxious	-12622
▁categor	-12623
▁charity	-12624
▁chimpan	-12625
▁default	-12626
▁dischar	-12627
▁lesions	-12628
▁painter	-12629
▁poultry	-12630
▁refused	-12631
▁semicon	-12632
▁terrain	-12633
▁welding	-12634
▁Multiple	-12635
▁brushing	-12636
▁channels	-12637
▁conclude	-12638
▁perceive	-12639
especially	-12640
▁Authority	-12641
▁abdominal	-12642
▁assembled	-12643
▁beverages	-12644
▁discrimin	-12645
▁forgotten	-12646
▁operators	-12647
▁permitted	-12648
▁algorithms	-12649
▁extraction	-12650
▁injections	-12651
▁pharmaceut	-12652
▁structured	-12653
disciplinary	-12654
▁arrangement	-12655
▁dysfunction	-12656
▁illustrates	-12657
▁Independence	-12658
▁practitioners	-12659
▁presentations	-12660
▁rehabilitation	-12661
7%	-12662
BR	-12663
DI	-12664
cr	-12665
tu	-12666
ACT	-12667
Per	-12668
cat	-12669
dec	-12670
iac	-12671
vas	-12672
▁95	-12673
▁Gi	-12674
▁Od	-12675
▁SE	-12676
▁SU	-12677
acle	-12678
emed	-12679
hell	-12680
icus	-12681
ilib	-12682
inar	-12683
opsy	-12684
prot	-12685
stud	-12686
tebr	-12687
uble	-12688
ucks	-12689
▁177	-12690
▁Bib	-12691
▁CON	-12692
▁Dor	-12693
▁Tar	-12694
▁bip	-12695
▁bug	-12696
▁dan	-12697
▁kin	-12698
Point	-12699
ignty	-12700
large	-12701
urisd	-12702
▁Brun	-12703
▁Jere	-12704
▁Juan	-12705
▁Pier	-12706
▁Rand	-12707
▁Vill	-12708
▁bias	-12709
▁cube	-12710
▁exem	-12711
▁folk	-12712
▁grad	-12713
▁perf	-12714
▁proc	-12715
▁rend	-12716
▁ties	-12717
cancer	-12718
lessly	-12719
ocking	-12720
strate	-12721
ulture	-12722
ussion	-12723
▁3,000	-12724
▁Bloom	-12725
▁Categ	-12726
▁Email	-12727
▁Hence	-12728
▁Milky	-12729
▁Notes	-12730
▁Sandy	-12731
▁apple	-12732
▁flags	-12733
▁fluct	-12734
▁germs	-12735
▁infin	-12736
▁manus	-12737
▁metap	-12738
▁morph	-12739
▁noble	-12740
▁overd	-12741
▁pound	-12742
▁resur	-12743
▁squee	-12744
▁yeast	-12745
otional	-12746
▁Arabic	-12747
▁Atmosp	-12748
▁Breast	-12749
▁Desert	-12750
▁Hallow	-12751
▁Michel	-12752
▁Prince	-12753
▁Temper	-12754
▁aboard	-12755
▁comets	-12756
▁dozens	-12757
▁median	-12758
▁offset	-12759
▁orbits	-12760
▁potato	-12761
▁quotes	-12762
▁slower	-12763
▁sphere	-12764
▁sulfur	-12765
▁upward	-12766
▁whales	-12767
atabases	-12768
▁Roberts	-12769
▁Timothy	-12770
▁YouTube	-12771
▁advised	-12772
▁artwork	-12773
▁battles	-12774
▁crystal	-12775
▁eclipse	-12776
▁immense	-12777
▁locomot	-12778
ationally	-12779
▁Genetics	-12780
▁Incorpor	-12781
▁Internal	-12782
▁Medicaid	-12783
▁attacked	-12784
▁baseball	-12785
▁efficacy	-12786
▁fracture	-12787
▁pathways	-12788
▁pleasant	-12789
▁portable	-12790
▁sacrific	-12791
▁Executive	-12792
▁afternoon	-12793
▁analyzing	-12794
▁automated	-12795
▁companion	-12796
▁curiosity	-12797
▁economies	-12798
▁forecasts	-12799
▁initiated	-12800
▁marketing	-12801
▁traumatic	-12802
▁Eventually	-12803
▁Queensland	-12804
▁accelerate	-12805
▁acceptance	-12806
▁mathematic	-12807
▁membership	-12808
▁occurrence	-12809
▁ornamental	-12810
▁practicing	-12811
▁remembered	-12812
▁supportive	-12813
▁tremendous	-12814
▁Netherlands	-12815
▁proportions	-12816
▁hypertension	-12817
▁osteoporosis	-12818
▁subsequently	-12819
▁surveillance	-12820
▁functionality	-12821
▁philosophical	-12822
▁physiological	-12823
▁Communications	-12824
4%	-12825
41	-12826
87	-12827
PL	-12828
11.	-12829
Con	-12830
ECT	-12831
asa	-12832
cha	-12833
gly	-12834
ikh	-12835
▁43	-12836
▁5%	-12837
▁SS	-12838
▁TR	-12839
▁fr	-12840
bird	-12841
card	-12842
folk	-12843
heit	-12844
iler	-12845
nels	-12846
onge	-12847
oton	-12848
otos	-12849
rade	-12850
uese	-12851
vada	-12852
vals	-12853
▁000	-12854
▁10-	-12855
▁25%	-12856
▁Der	-12857
▁ESA	-12858
▁Gab	-12859
▁Hob	-12860
▁Ott	-12861
▁Tay	-12862
▁asc	-12863
▁gay	-12864
annel	-12865
atson	-12866
eller	-12867
osity	-12868
overs	-12869
ranch	-12870
▁Heav	-12871
▁Milk	-12872
▁Tour	-12873
▁bold	-12874
▁dipl	-12875
▁okay	-12876
▁phon	-12877
▁tale	-12878
▁tart	-12879
▁wool	-12880
ailing	-12881
arming	-12882
rophys	-12883
▁Excel	-12884
▁Issue	-12885
▁Plato	-12886
▁Pregn	-12887
▁Veget	-12888
▁airpl	-12889
▁blame	-12890
▁imbal	-12891
▁ozone	-12892
▁socio	-12893
▁theft	-12894
forming	-12895
gencies	-12896
ignment	-12897
version	-12898
▁Commer	-12899
▁Remove	-12900
▁Sports	-12901
▁abroad	-12902
▁contag	-12903
▁darker	-12904
▁dreams	-12905
▁enroll	-12906
▁excite	-12907
▁fitted	-12908
▁onions	-12909
▁rubber	-12910
▁shades	-12911
▁silent	-12912
▁solely	-12913
▁thrown	-12914
▁timing	-12915
▁upload	-12916
▁wheels	-12917
▁worlds	-12918
▁Problem	-12919
▁Smoking	-12920
▁anymore	-12921
▁expense	-12922
▁genuine	-12923
▁inherit	-12924
▁peppers	-12925
▁protest	-12926
▁resting	-12927
▁thunder	-12928
ahrenheit	-12929
expensive	-12930
▁Cultural	-12931
▁Festival	-12932
▁Medicare	-12933
▁approval	-12934
▁colleges	-12935
▁depicted	-12936
▁eligible	-12937
▁football	-12938
▁governor	-12939
▁radicals	-12940
▁switches	-12941
intestinal	-12942
▁Emergency	-12943
▁belonging	-12944
▁caterpill	-12945
▁certified	-12946
▁elections	-12947
▁explosion	-12948
▁numerical	-12949
▁parasites	-12950
▁phenomena	-12951
▁responded	-12952
▁shoulders	-12953
▁Vocabulary	-12954
▁harvesting	-12955
▁motivation	-12956
▁nationwide	-12957
▁preventive	-12958
▁resilience	-12959
▁simulation	-12960
▁Smithsonian	-12961
▁controversy	-12962
▁cultivation	-12963
▁departments	-12964
▁disappeared	-12965
▁inhabitants	-12966
▁radioactive	-12967
▁transported	-12968
▁inflammatory	-12969
▁kindergarten	-12970
▁manufactured	-12971
▁independently	-12972
▁pronunciation	-12973
▁substantially	-12974
08	-12975
ICE	-12976
Web	-12977
boo	-12978
ige	-12979
isa	-12980
izz	-12981
sea	-12982
▁1-	-12983
▁Gh	-12984
▁MB	-12985
away	-12986
irth	-12987
itat	-12988
mala	-12989
onto	-12990
ophy	-12991
rass	-12992
rish	-12993
sens	-12994
ugar	-12995
vier	-12996
wash	-12997
▁110	-12998
▁Ens	-12999
▁Fem	-13000
▁Fif	-13001
▁Hal	-13002
▁Mom	-13003
▁Rap	-13004
▁Ron	-13005
▁Sab	-13006
aning	-13007
ierra	-13008
neath	-13009
opter	-13010
reach	-13011
▁Balt	-13012
▁Soil	-13013
▁acne	-13014
▁fled	-13015
▁lact	-13016
▁luck	-13017
▁plum	-13018
itives	-13019
ometry	-13020
omorph	-13021
▁Allow	-13022
▁Basin	-13023
▁Grant	-13024
▁Reduc	-13025
▁Venus	-13026
▁adhes	-13027
▁beats	-13028
▁climb	-13029
▁flesh	-13030
▁inaug	-13031
▁kills	-13032
▁liber	-13033
▁renow	-13034
▁screw	-13035
▁shots	-13036
▁sprou	-13037
▁stiff	-13038
▁tries	-13039
control	-13040
parents	-13041
ructose	-13042
▁Bishop	-13043
▁Fourth	-13044
▁masses	-13045
▁metall	-13046
▁namely	-13047
▁toilet	-13048
ilibrium	-13049
▁Alexand	-13050
▁deficit	-13051
▁induced	-13052
▁optimum	-13053
▁patches	-13054
▁railway	-13055
▁robotic	-13056
▁tragedy	-13057
▁undergo	-13058
▁Continue	-13059
▁Florence	-13060
▁Governor	-13061
▁Marshall	-13062
▁Projects	-13063
▁broccoli	-13064
▁damaging	-13065
▁impaired	-13066
▁judgment	-13067
▁simplest	-13068
▁strictly	-13069
▁terminal	-13070
▁wondered	-13071
▁Childhood	-13072
▁Important	-13073
▁Indonesia	-13074
▁Programme	-13075
▁Singapore	-13076
▁astronomy	-13077
▁consisted	-13078
▁desirable	-13079
▁endurance	-13080
▁fantastic	-13081
▁generator	-13082
▁precisely	-13083
▁sensation	-13084
▁accounting	-13085
▁historians	-13086
▁identifies	-13087
▁kilometres	-13088
▁livelihood	-13089
▁mainstream	-13090
▁manipulate	-13091
▁programmes	-13092
▁recognised	-13093
▁stimulation	-13094
▁terrestrial	-13095
▁considerably	-13096
▁counterparts	-13097
▁gravitational	-13098
="	-13099
Do	-13100
En	-13101
Pe	-13102
SE	-13103
hn	-13104
)||	-13105
NAL	-13106
enh	-13107
kit	-13108
opl	-13109
pic	-13110
▁(7	-13111
▁ES	-13112
▁Ra	-13113
▁Xi	-13114
▁ho	-13115
▁ly	-13116
ican	-13117
isan	-13118
ithm	-13119
oria	-13120
oval	-13121
ripp	-13122
ryst	-13123
some	-13124
tech	-13125
thod	-13126
▁0.5	-13127
▁10:	-13128
▁20-	-13129
▁ABC	-13130
▁ACT	-13131
▁Bry	-13132
▁Hud	-13133
▁IBM	-13134
▁Tro	-13135
▁VII	-13136
▁bin	-13137
▁sor	-13138
adequ	-13139
arded	-13140
eliac	-13141
elong	-13142
jamin	-13143
namic	-13144
uming	-13145
▁Bron	-13146
▁Fill	-13147
▁Lost	-13148
▁Mand	-13149
▁Mole	-13150
▁Mosc	-13151
▁Shar	-13152
▁Whit	-13153
▁hack	-13154
▁intu	-13155
▁labs	-13156
▁lect	-13157
▁pile	-13158
▁stub	-13159
▁thir	-13160
▁tune	-13161
▁twin	-13162
annica	-13163
mented	-13164
oelect	-13165
rosion	-13166
▁Advis	-13167
▁Crown	-13168
▁Exhib	-13169
▁Glass	-13170
▁Quick	-13171
▁Sarah	-13172
▁Seven	-13173
▁apnea	-13174
▁blade	-13175
▁brick	-13176
▁energ	-13177
▁fails	-13178
▁hatch	-13179
▁lifes	-13180
▁navig	-13181
▁pills	-13182
▁probe	-13183
▁reass	-13184
▁slope	-13185
▁stays	-13186
induced	-13187
natural	-13188
plicity	-13189
thening	-13190
▁Autism	-13191
▁Hispan	-13192
▁Humans	-13193
▁Impact	-13194
▁Mechan	-13195
▁Mobile	-13196
▁Notice	-13197
▁Samuel	-13198
▁benign	-13199
▁caring	-13200
▁cereal	-13201
▁defect	-13202
▁depths	-13203
▁dispos	-13204
▁fusion	-13205
▁headed	-13206
▁invite	-13207
▁motors	-13208
▁priest	-13209
▁propos	-13210
▁relies	-13211
▁spokes	-13212
▁strips	-13213
▁unders	-13214
▁Captain	-13215
▁Collins	-13216
▁Nuclear	-13217
▁Numbers	-13218
▁Regular	-13219
▁Stories	-13220
▁archive	-13221
▁buttons	-13222
▁credits	-13223
▁enabled	-13224
▁enthusi	-13225
▁exploit	-13226
▁grocery	-13227
▁inspect	-13228
▁nearest	-13229
▁nesting	-13230
▁pathway	-13231
▁picking	-13232
▁rituals	-13233
▁storing	-13234
▁tourist	-13235
icultural	-13236
▁Academic	-13237
▁Anderson	-13238
▁Cemetery	-13239
▁advocate	-13240
▁cemetery	-13241
▁compiled	-13242
▁constitu	-13243
▁crystals	-13244
▁impacted	-13245
▁imported	-13246
▁prompted	-13247
▁supplied	-13248
▁Classroom	-13249
▁Guatemala	-13250
▁cigarette	-13251
▁elephants	-13252
▁elevation	-13253
▁occasions	-13254
▁prototype	-13255
▁suspended	-13256
▁worksheet	-13257
▁Everything	-13258
▁applicable	-13259
▁controller	-13260
▁expectancy	-13261
▁inhibitors	-13262
▁instructor	-13263
▁ultrasound	-13264
▁unexpected	-13265
▁Instruction	-13266
▁documentary	-13267
▁fertilizers	-13268
▁permanently	-13269
▁geographical	-13270
▁individually	-13271
▁mesothelioma	-13272
▁investigating	-13273
▁investigations	-13274
**	-13275
.2	-13276
3-	-13277
6)	-13278
MR	-13279
OG	-13280
PR	-13281
Se	-13282
tr	-13283
▁«	-13284
600	-13285
gic	-13286
pay	-13287
ref	-13288
▁39	-13289
▁EX	-13290
bone	-13291
bral	-13292
elin	-13293
gets	-13294
okes	-13295
pler	-13296
pret	-13297
rose	-13298
▁170	-13299
▁2.0	-13300
▁360	-13301
▁Ale	-13302
▁Boy	-13303
▁Kir	-13304
▁Opp	-13305
▁pie	-13306
▁rom	-13307
▁sel	-13308
ijing	-13309
odium	-13310
omers	-13311
omnia	-13312
proof	-13313
raine	-13314
roups	-13315
tings	-13316
▁Cert	-13317
▁Chen	-13318
▁Fall	-13319
▁Iran	-13320
▁Mayo	-13321
▁NOAA	-13322
▁Save	-13323
▁Sugg	-13324
▁bump	-13325
▁chew	-13326
▁clip	-13327
▁deck	-13328
▁echo	-13329
▁loop	-13330
▁node	-13331
▁nurt	-13332
▁plug	-13333
▁stew	-13334
▁trap	-13335
angers	-13336
asures	-13337
lywood	-13338
plants	-13339
urrent	-13340
▁Areas	-13341
▁Essay	-13342
▁Jerry	-13343
▁Spect	-13344
▁Syria	-13345
▁Total	-13346
▁Waste	-13347
▁[...]	-13348
▁beads	-13349
▁enact	-13350
▁feast	-13351
▁gross	-13352
▁handy	-13353
▁indig	-13354
▁jelly	-13355
▁modes	-13356
▁pride	-13357
▁quake	-13358
▁sized	-13359
▁sweat	-13360
▁venom	-13361
▁vocal	-13362
changed	-13363
iciency	-13364
tically	-13365
ulative	-13366
▁20,000	-13367
▁30,000	-13368
▁Fisher	-13369
▁Kansas	-13370
▁Person	-13371
▁Region	-13372
▁Stress	-13373
▁Treaty	-13374
▁Turkey	-13375
▁barely	-13376
▁curved	-13377
▁gravel	-13378
▁imagin	-13379
▁interf	-13380
▁intric	-13381
▁riding	-13382
▁ruling	-13383
▁runoff	-13384
▁struck	-13385
▁whites	-13386
ogenesis	-13387
▁Anthrop	-13388
▁Flowers	-13389
▁Records	-13390
▁cleaned	-13391
▁emperor	-13392
▁imports	-13393
▁museums	-13394
▁preview	-13395
▁rounded	-13396
▁schemes	-13397
▁Benjamin	-13398
▁Identify	-13399
▁Movement	-13400
▁aquarium	-13401
▁archives	-13402
▁blocking	-13403
▁cinnamon	-13404
▁deceased	-13405
▁delicate	-13406
▁executed	-13407
▁fracking	-13408
▁imperial	-13409
▁juvenile	-13410
▁lowering	-13411
▁mistaken	-13412
▁obstruct	-13413
▁orbiting	-13414
▁remedies	-13415
▁scanning	-13416
▁squirrel	-13417
▁stressed	-13418
▁Amendment	-13419
▁Solutions	-13420
▁accounted	-13421
▁attending	-13422
▁backwards	-13423
▁graduates	-13424
▁hurricane	-13425
▁rectangle	-13426
▁reproduce	-13427
▁signature	-13428
▁submitted	-13429
▁unhealthy	-13430
▁utilities	-13431
▁combustion	-13432
▁converting	-13433
▁exercising	-13434
▁Electricity	-13435
▁consequence	-13436
▁destructive	-13437
▁foundations	-13438
▁informative	-13439
▁breakthrough	-13440
▁commercially	-13441
▁intermediate	-13442
▁configuration	-13443
▁modifications	-13444
▁transformation	-13445
AB	-13446
FR	-13447
ME	-13448
Or	-13449
Ind	-13450
SQL	-13451
eld	-13452
hol	-13453
neg	-13454
oen	-13455
▁5-	-13456
▁Ay	-13457
▁Az	-13458
▁CN	-13459
▁Lt	-13460
▁Zh	-13461
Last	-13462
acea	-13463
eger	-13464
home	-13465
iser	-13466
plus	-13467
rock	-13468
seud	-13469
sole	-13470
ught	-13471
zzle	-13472
▁15.	-13473
▁Cou	-13474
▁Deb	-13475
▁GNU	-13476
▁Isa	-13477
▁Kal	-13478
▁MHz	-13479
▁PAR	-13480
▁Pas	-13481
▁RES	-13482
▁Say	-13483
▁Tal	-13484
▁URL	-13485
▁ana	-13486
▁doi	-13487
▁piv	-13488
▁soc	-13489
anche	-13490
erers	-13491
erves	-13492
hesia	-13493
inist	-13494
lycer	-13495
matic	-13496
oglob	-13497
third	-13498
viate	-13499
▁Hong	-13500
▁IUCN	-13501
▁Past	-13502
▁Size	-13503
▁Stop	-13504
▁carn	-13505
▁dawn	-13506
▁fans	-13507
▁hits	-13508
▁info	-13509
▁lava	-13510
▁mars	-13511
▁rhet	-13512
▁sour	-13513
Health	-13514
attles	-13515
heumat	-13516
istent	-13517
mother	-13518
ocytes	-13519
second	-13520
tailed	-13521
▁2016.	-13522
▁Anton	-13523
▁Citiz	-13524
▁Estab	-13525
▁Flash	-13526
▁Flood	-13527
▁Prior	-13528
▁Store	-13529
▁ammon	-13530
▁bench	-13531
▁blend	-13532
▁cache	-13533
▁cysts	-13534
▁detox	-13535
▁intim	-13536
▁kings	-13537
▁laugh	-13538
▁magic	-13539
▁march	-13540
▁meats	-13541
▁seats	-13542
▁shaft	-13543
Science	-13544
ixtures	-13545
reating	-13546
▁Advent	-13547
▁Ethiop	-13548
▁Member	-13549
▁Mental	-13550
▁burial	-13551
▁chains	-13552
▁foster	-13553
▁infest	-13554
▁intrig	-13555
▁jurisd	-13556
▁killer	-13557
▁landed	-13558
▁skelet	-13559
▁stayed	-13560
▁stocks	-13561
▁thirst	-13562
▁Beijing	-13563
▁Machine	-13564
▁Sources	-13565
▁athlete	-13566
▁dynasty	-13567
▁envelop	-13568
▁fastest	-13569
▁harmony	-13570
▁heavier	-13571
▁implies	-13572
▁joining	-13573
▁lateral	-13574
▁priests	-13575
▁printer	-13576
▁recipes	-13577
▁squares	-13578
▁touched	-13579
▁warrant	-13580
▁Alliance	-13581
▁Creation	-13582
▁Families	-13583
▁adjusted	-13584
▁charging	-13585
▁constell	-13586
▁educator	-13587
▁enhances	-13588
▁reindeer	-13589
▁requests	-13590
▁symbolic	-13591
▁watering	-13592
▁Armstrong	-13593
▁Assistant	-13594
▁Geography	-13595
▁directory	-13596
▁enhancing	-13597
▁fractions	-13598
▁fractures	-13599
▁inability	-13600
▁incidents	-13601
▁interrupt	-13602
▁obtaining	-13603
▁pathogens	-13604
▁prescribe	-13605
▁struggles	-13606
▁Population	-13607
▁PowerPoint	-13608
▁Publishing	-13609
▁autoimmune	-13610
▁autonomous	-13611
▁conceptual	-13612
▁evaluating	-13613
▁incentives	-13614
▁prohibited	-13615
▁swallowing	-13616
▁underneath	-13617
▁Institution	-13618
▁certificate	-13619
▁chromosomes	-13620
▁continually	-13621
▁exceptional	-13622
▁researching	-13623
▁restaurants	-13624
▁contaminants	-13625
▁organisation	-13626
▁photographer	-13627
▁presidential	-13628
▁proportional	-13629
▁antimicrobial	-13630
▁Transportation	-13631
▁administrators	-13632
"?	-13633
Cl	-13634
DT	-13635
Pl	-13636
SM	-13637
Up	-13638
Us	-13639
WA	-13640
kg	-13641
oj	-13642
uy	-13643
9).	-13644
GBT	-13645
TER	-13646
dal	-13647
▁(0	-13648
▁Ax	-13649
▁CS	-13650
▁CV	-13651
▁IL	-13652
▁mi	-13653
Book	-13654
anim	-13655
atum	-13656
etry	-13657
hero	-13658
ilty	-13659
inus	-13660
leys	-13661
mitt	-13662
odia	-13663
onts	-13664
orse	-13665
owed	-13666
pton	-13667
riet	-13668
serv	-13669
▁130	-13670
▁26,	-13671
▁Bah	-13672
▁Cas	-13673
▁Dyn	-13674
▁Han	-13675
▁Luc	-13676
▁Mas	-13677
▁Moh	-13678
▁Muh	-13679
▁Sel	-13680
▁ail	-13681
▁bol	-13682
▁gig	-13683
▁mul	-13684
▁que	-13685
▁sof	-13686
▁tie	-13687
anium	-13688
black	-13689
ibern	-13690
names	-13691
ranes	-13692
rayed	-13693
style	-13694
ungal	-13695
▁Brad	-13696
▁Cook	-13697
▁Emma	-13698
▁Half	-13699
▁Iraq	-13700
▁Kong	-13701
▁RAID	-13702
▁Spot	-13703
▁Viol	-13704
▁edit	-13705
▁fier	-13706
▁forb	-13707
▁hect	-13708
▁obsc	-13709
▁opio	-13710
▁quot	-13711
▁seaf	-13712
▁unst	-13713
50,000	-13714
eering	-13715
ensing	-13716
ignant	-13717
igrams	-13718
ogical	-13719
orient	-13720
▁Above	-13721
▁Blake	-13722
▁Eight	-13723
▁Laure	-13724
▁Scale	-13725
▁Soyuz	-13726
▁Steve	-13727
▁Style	-13728
▁Teach	-13729
▁altar	-13730
▁coins	-13731
▁coron	-13732
▁encry	-13733
▁forty	-13734
▁fraud	-13735
▁gamma	-13736
▁glory	-13737
▁grace	-13738
▁likes	-13739
▁loyal	-13740
▁naval	-13741
▁nurse	-13742
▁tiles	-13743
▁upset	-13744
▁vivid	-13745
▁whale	-13746
fiction	-13747
inburgh	-13748
obacter	-13749
usually	-13750
▁Active	-13751
▁Annual	-13752
▁Apollo	-13753
▁Guinea	-13754
▁Hamlet	-13755
▁Hurric	-13756
▁Poland	-13757
▁Sierra	-13758
▁Speech	-13759
▁Vienna	-13760
▁agenda	-13761
▁basket	-13762
▁canned	-13763
▁casual	-13764
▁coping	-13765
▁cosmic	-13766
▁frames	-13767
▁greens	-13768
▁hosted	-13769
▁lesser	-13770
▁mening	-13771
▁prosec	-13772
▁retina	-13773
▁scroll	-13774
▁shower	-13775
▁sprink	-13776
▁sticks	-13777
▁tablet	-13778
▁treats	-13779
▁ulcers	-13780
▁wiring	-13781
clerosis	-13782
economic	-13783
etheless	-13784
▁Affairs	-13785
▁Austria	-13786
▁Members	-13787
▁Respons	-13788
▁Welcome	-13789
▁awesome	-13790
▁beetles	-13791
▁council	-13792
▁dispute	-13793
▁emitted	-13794
▁graders	-13795
▁letting	-13796
▁monarch	-13797
▁permits	-13798
▁posters	-13799
▁toddler	-13800
ighthouse	-13801
▁Intellig	-13802
▁confined	-13803
▁dinosaur	-13804
▁exhibits	-13805
▁fructose	-13806
▁glaciers	-13807
▁grinding	-13808
▁maturity	-13809
▁ministry	-13810
▁monoxide	-13811
▁predator	-13812
▁promised	-13813
▁receptor	-13814
▁siblings	-13815
▁Framework	-13816
▁dimension	-13817
▁emphasize	-13818
▁flowering	-13819
▁generates	-13820
▁integrate	-13821
▁intervals	-13822
▁petroleum	-13823
▁practiced	-13824
▁receptors	-13825
▁relevance	-13826
▁satisfied	-13827
▁seemingly	-13828
▁southwest	-13829
▁switching	-13830
▁volunteer	-13831
▁wondering	-13832
▁workforce	-13833
▁Fahrenheit	-13834
▁Hemisphere	-13835
▁Portuguese	-13836
▁mysterious	-13837
▁occasional	-13838
▁undertaken	-13839
▁vegetarian	-13840
▁acquisition	-13841
▁compromised	-13842
▁predominant	-13843
▁temporarily	-13844
▁accompanying	-13845
▁accumulation	-13846
▁insufficient	-13847
▁transparency	-13848
▁undergraduate	-13849
))	-13850
1:	-13851
57	-13852
85	-13853
Ab	-13854
Sm	-13855
ORD	-13856
aho	-13857
ben	-13858
dem	-13859
lon	-13860
mus	-13861
phe	-13862
sky	-13863
via	-13864
▁CC	-13865
▁PV	-13866
▁VA	-13867
▁WA	-13868
agar	-13869
arre	-13870
educ	-13871
good	-13872
itin	-13873
root	-13874
town	-13875
▁12-	-13876
▁181	-13877
▁60%	-13878
▁Alt	-13879
▁Bat	-13880
▁Beh	-13881
▁Chi	-13882
▁Gas	-13883
▁Mig	-13884
▁Nik	-13885
▁Sax	-13886
▁dot	-13887
▁lig	-13888
ailed	-13889
amboo	-13890
chrom	-13891
cover	-13892
iotic	-13893
marks	-13894
month	-13895
otion	-13896
scill	-13897
ulous	-13898
utter	-13899
years	-13900
▁1850	-13901
▁2018	-13902
▁Bapt	-13903
▁Chan	-13904
▁Else	-13905
▁Hind	-13906
▁Kath	-13907
▁Khan	-13908
▁Poor	-13909
▁Sche	-13910
▁Song	-13911
▁Turk	-13912
▁Upon	-13913
▁amph	-13914
▁coli	-13915
▁cone	-13916
▁craw	-13917
▁ende	-13918
▁exit	-13919
▁foam	-13920
▁grab	-13921
▁iter	-13922
▁stap	-13923
▁succ	-13924
▁suck	-13925
▁tile	-13926
▁toes	-13927
ateral	-13928
rading	-13929
uaries	-13930
urally	-13931
▁2017.	-13932
▁Bruce	-13933
▁Fresh	-13934
▁Johns	-13935
▁Kenya	-13936
▁Scout	-13937
▁Trump	-13938
▁grasp	-13939
▁newer	-13940
▁pengu	-13941
▁pupil	-13942
▁races	-13943
▁recru	-13944
▁reuse	-13945
▁scrap	-13946
▁sixth	-13947
▁terra	-13948
▁tombs	-13949
▁trash	-13950
▁walks	-13951
reshold	-13952
▁Causes	-13953
▁Disney	-13954
▁Harbor	-13955
▁Nevada	-13956
▁Server	-13957
▁Watson	-13958
▁abnorm	-13959
▁anyway	-13960
▁biopsy	-13961
▁blooms	-13962
▁bronze	-13963
▁citrus	-13964
▁deemed	-13965
▁evolve	-13966
▁metast	-13967
▁petals	-13968
▁racism	-13969
▁studio	-13970
▁valued	-13971
bullying	-13972
▁Doctors	-13973
▁Meaning	-13974
▁aerobic	-13975
▁antenna	-13976
▁clinics	-13977
▁crossed	-13978
▁decimal	-13979
▁dormant	-13980
▁endemic	-13981
▁grazing	-13982
▁handful	-13983
▁margins	-13984
▁proceed	-13985
▁Bullying	-13986
▁Identity	-13987
▁Manufact	-13988
▁Products	-13989
▁advocacy	-13990
▁altitude	-13991
▁charcoal	-13992
▁eruption	-13993
▁keyboard	-13994
▁offshore	-13995
▁parental	-13996
▁renowned	-13997
▁tourists	-13998
▁youngest	-13999
▁Engineers	-14000
▁featuring	-14001
▁investing	-14002
▁nonprofit	-14003
▁northeast	-14004
▁printable	-14005
▁religions	-14006
▁requested	-14007
▁resonance	-14008
▁translate	-14009
forestation	-14010
▁Britannica	-14011
▁Developing	-14012
▁geological	-14013
▁indication	-14014
▁preserving	-14015
▁recreation	-14016
▁reflecting	-14017
▁Programming	-14018
▁extensively	-14019
▁preventable	-14020
▁Nevertheless	-14021
▁Professional	-14022
▁Technologies	-14023
▁associations	-14024
▁carbohydrate	-14025
▁conditioning	-14026
▁degeneration	-14027
▁grandparents	-14028
▁interference	-14029
▁modification	-14030
▁incorporating	-14031
▁vulnerability	-14032
▁electromagnetic	-14033
▁straightforward	-14034
/3	-14035
DE	-14036
,''	-14037
2),	-14038
AND	-14039
orp	-14040
usc	-14041
▁AF	-14042
▁DA	-14043
Stud	-14044
aunt	-14045
aust	-14046
bled	-14047
bola	-14048
clam	-14049
imet	-14050
inue	-14051
week	-14052
zech	-14053
▁(3)	-14054
▁12:	-14055
▁179	-14056
▁3.0	-14057
▁ALL	-14058
▁Amb	-14059
▁Cos	-14060
▁Dow	-14061
▁Jay	-14062
▁Les	-14063
▁McG	-14064
▁Ros	-14065
▁blu	-14066
▁cyt	-14067
▁dos	-14068
▁eco	-14069
▁maj	-14070
▁oak	-14071
▁sap	-14072
angar	-14073
asted	-14074
bound	-14075
cepts	-14076
check	-14077
duino	-14078
onder	-14079
osure	-14080
roads	-14081
uests	-14082
vings	-14083
▁Bear	-14084
▁Diff	-14085
▁GCSE	-14086
▁Gate	-14087
▁Vent	-14088
▁Yale	-14089
▁bail	-14090
▁boom	-14091
▁chip	-14092
▁drew	-14093
▁kiss	-14094
▁limb	-14095
▁plag	-14096
▁remn	-14097
▁soup	-14098
▁spam	-14099
▁zinc	-14100
Europe	-14101
agrams	-14102
essori	-14103
father	-14104
minute	-14105
▁2004,	-14106
▁Arist	-14107
▁Broad	-14108
▁Leave	-14109
▁Moses	-14110
▁Pitts	-14111
▁Pluto	-14112
▁Price	-14113
▁Recon	-14114
▁annoy	-14115
▁burns	-14116
▁coach	-14117
▁conve	-14118
▁dated	-14119
▁excer	-14120
▁fetus	-14121
▁knife	-14122
▁posed	-14123
▁prize	-14124
▁shrub	-14125
agonist	-14126
develop	-14127
irement	-14128
lishers	-14129
organic	-14130
▁Carter	-14131
▁Custom	-14132
▁Flight	-14133
▁Invent	-14134
▁Listen	-14135
▁Moscow	-14136
▁assert	-14137
▁bullet	-14138
▁checks	-14139
▁chords	-14140
▁drones	-14141
▁drying	-14142
▁dyslex	-14143
▁enlist	-14144
▁gently	-14145
▁gloves	-14146
▁hollow	-14147
▁overse	-14148
▁pulses	-14149
▁raises	-14150
▁reflex	-14151
▁reflux	-14152
▁scarce	-14153
▁treaty	-14154
▁uterus	-14155
adequate	-14156
ensation	-14157
▁Capital	-14158
▁Defense	-14159
▁Faculty	-14160
▁Norfolk	-14161
▁contrad	-14162
▁delayed	-14163
▁deserve	-14164
▁embrace	-14165
▁essence	-14166
▁finance	-14167
▁listing	-14168
▁modules	-14169
▁offline	-14170
▁rolling	-14171
▁scratch	-14172
▁subscri	-14173
▁unclear	-14174
▁wonders	-14175
▁Military	-14176
▁Register	-14177
▁announce	-14178
▁athletic	-14179
▁deciding	-14180
▁entities	-14181
▁informal	-14182
▁mainland	-14183
▁monetary	-14184
▁pancreas	-14185
▁reminder	-14186
▁stresses	-14187
▁textbook	-14188
▁vertebra	-14189
▁Edinburgh	-14190
▁Encourage	-14191
▁Halloween	-14192
▁Technical	-14193
▁alternate	-14194
▁emergence	-14195
▁exhibited	-14196
▁extracted	-14197
▁hepatitis	-14198
▁inhabited	-14199
▁intersect	-14200
▁isolation	-14201
▁marijuana	-14202
▁strongest	-14203
▁Healthcare	-14204
▁Montessori	-14205
▁Principles	-14206
▁adequately	-14207
▁administer	-14208
▁altogether	-14209
▁collective	-14210
▁commentary	-14211
▁conception	-14212
▁milligrams	-14213
▁underwater	-14214
▁interpreted	-14215
▁neighboring	-14216
▁preferences	-14217
▁qualitative	-14218
▁similarities	-14219
▁appropriately	-14220
▁investigators	-14221
▁microorganisms	-14222
▁recommendation	-14223
HI	-14224
Ps	-14225
UM	-14226
uf	-14227
ón	-14228
′′	-14229
1),	-14230
Day	-14231
ISC	-14232
ico	-14233
nan	-14234
ogg	-14235
oub	-14236
pin	-14237
rof	-14238
yes	-14239
zan	-14240
▁$3	-14241
▁6:	-14242
▁BY	-14243
▁MC	-14244
▁Mt	-14245
▁je	-14246
▁nm	-14247
▁pm	-14248
More	-14249
cils	-14250
eous	-14251
four	-14252
gree	-14253
grow	-14254
olen	-14255
sche	-14256
unct	-14257
▁$1.	-14258
▁11:	-14259
▁182	-14260
▁APA	-14261
▁CEO	-14262
▁Eye	-14263
▁Inj	-14264
▁Mun	-14265
▁Nit	-14266
▁thy	-14267
▁voy	-14268
/2012	-14269
ammad	-14270
ellar	-14271
gress	-14272
group	-14273
never	-14274
ocate	-14275
onent	-14276
umble	-14277
▁$100	-14278
▁Alan	-14279
▁Capt	-14280
▁Cass	-14281
▁Crow	-14282
▁Flag	-14283
▁Lanc	-14284
▁Lank	-14285
▁Rare	-14286
▁bend	-14287
▁fist	-14288
▁fool	-14289
▁mira	-14290
▁odor	-14291
▁tent	-14292
celain	-14293
driven	-14294
escent	-14295
orrhea	-14296
pshire	-14297
redict	-14298
ugging	-14299
▁Falls	-14300
▁Polar	-14301
▁Ridge	-14302
▁appar	-14303
▁arrow	-14304
▁belly	-14305
▁bored	-14306
▁catar	-14307
▁chalk	-14308
▁fleet	-14309
▁illeg	-14310
▁incub	-14311
▁intra	-14312
▁magma	-14313
▁motif	-14314
▁relay	-14315
▁renov	-14316
▁tidal	-14317
▁trait	-14318
▁voted	-14319
▁50,000	-14320
▁Allerg	-14321
▁Hudson	-14322
▁Recogn	-14323
▁Script	-14324
▁Taylor	-14325
▁anomal	-14326
▁clever	-14327
▁consec	-14328
▁detrim	-14329
▁eighth	-14330
▁exotic	-14331
▁housed	-14332
▁laying	-14333
▁pocket	-14334
▁purely	-14335
▁saliva	-14336
▁soccer	-14337
▁socket	-14338
▁sooner	-14339
▁stigma	-14340
othermal	-14341
▁Address	-14342
▁Applied	-14343
▁Coordin	-14344
▁Highway	-14345
▁Measure	-14346
▁Vermont	-14347
▁binding	-14348
▁bottles	-14349
▁diamond	-14350
▁farther	-14351
▁fitting	-14352
▁gaining	-14353
▁hanging	-14354
▁harness	-14355
▁hunters	-14356
▁pressed	-14357
▁priorit	-14358
▁referen	-14359
▁seniors	-14360
▁teenage	-14361
▁tightly	-14362
▁tunnels	-14363
astically	-14364
ilization	-14365
▁Campaign	-14366
▁Citation	-14367
▁Contents	-14368
▁Function	-14369
▁Imperial	-14370
▁Keywords	-14371
▁Programs	-14372
▁Starting	-14373
▁Together	-14374
▁backyard	-14375
▁biblical	-14376
▁chambers	-14377
▁displace	-14378
▁founding	-14379
▁holidays	-14380
▁interval	-14381
▁lifelong	-14382
▁overhead	-14383
▁plastics	-14384
▁proclaim	-14385
▁railroad	-14386
▁responds	-14387
▁shortage	-14388
▁socially	-14389
▁temporal	-14390
▁Canadians	-14391
▁advocates	-14392
▁alleviate	-14393
▁appearing	-14394
▁audiences	-14395
▁comprised	-14396
▁databases	-14397
▁depressed	-14398
▁inclusive	-14399
▁necessity	-14400
▁photosynt	-14401
▁poisonous	-14402
▁remainder	-14403
▁sanctuary	-14404
▁scattered	-14405
▁Evaluation	-14406
▁Federation	-14407
▁caregivers	-14408
▁dependence	-14409
▁inequality	-14410
▁nationally	-14411
▁parliament	-14412
▁peripheral	-14413
▁phosphorus	-14414
▁Partnership	-14415
▁acknowledge	-14416
▁assumptions	-14417
▁preliminary	-14418
▁celebrations	-14419
▁consultation	-14420
▁philosophers	-14421
▁Documentation	-14422
▁certification	-14423
▁communicating	-14424
▁nanoparticles	-14425
BI	-14426
SH	-14427
TE	-14428
yt	-14429
▁’	-14430
ERE	-14431
May	-14432
aux	-14433
chy	-14434
jan	-14435
las	-14436
oda	-14437
oos	-14438
oso	-14439
rik	-14440
voc	-14441
web	-14442
whe	-14443
||3	-14444
▁49	-14445
▁77	-14446
▁DI	-14447
▁GM	-14448
▁IX	-14449
▁SM	-14450
▁Wy	-14451
▁Ze	-14452
anas	-14453
carb	-14454
fram	-14455
grim	-14456
harm	-14457
irts	-14458
keep	-14459
size	-14460
test	-14461
ulus	-14462
user	-14463
when	-14464
wind	-14465
zant	-14466
zema	-14467
▁70%	-14468
▁978	-14469
▁ALS	-14470
▁Bud	-14471
▁Cow	-14472
▁Cub	-14473
▁Hug	-14474
▁Mau	-14475
▁Nep	-14476
▁Ple	-14477
▁Vin	-14478
▁bod	-14479
▁bub	-14480
▁lap	-14481
▁zoo	-14482
,000.	-14483
acial	-14484
adium	-14485
adoes	-14486
asers	-14487
atics	-14488
cemic	-14489
iasis	-14490
iesel	-14491
ioned	-14492
izoph	-14493
leans	-14494
range	-14495
verbs	-14496
worms	-14497
▁Base	-14498
▁Feed	-14499
▁Made	-14500
▁Nich	-14501
▁Symb	-14502
▁Wang	-14503
▁Webs	-14504
▁anch	-14505
▁brut	-14506
▁club	-14507
▁cous	-14508
▁cyst	-14509
▁dign	-14510
▁dual	-14511
▁glow	-14512
▁grat	-14513
▁hate	-14514
▁kick	-14515
▁leap	-14516
▁pert	-14517
▁pour	-14518
▁sync	-14519
▁tact	-14520
iduous	-14521
ockets	-14522
ovirus	-14523
rowned	-14524
thirds	-14525
▁2000,	-14526
▁2003.	-14527
▁Ebola	-14528
▁Girls	-14529
▁Holoc	-14530
▁Lands	-14531
▁Naval	-14532
▁Thail	-14533
▁blogs	-14534
▁cubes	-14535
▁loves	-14536
▁mimic	-14537
▁moons	-14538
▁pores	-14539
▁ruins	-14540
▁ruler	-14541
▁scary	-14542
▁sting	-14543
amiliar	-14544
counter	-14545
ighters	-14546
ipation	-14547
mingham	-14548
▁Austin	-14549
▁Freder	-14550
▁Palace	-14551
▁Palest	-14552
▁Prepar	-14553
▁braces	-14554
▁bricks	-14555
▁commod	-14556
▁contra	-14557
▁cramps	-14558
▁denied	-14559
▁guilty	-14560
▁iconic	-14561
▁incons	-14562
▁mammal	-14563
▁modest	-14564
▁shield	-14565
▁shovel	-14566
▁wounds	-14567
izophren	-14568
olutions	-14569
▁Atlanta	-14570
▁Channel	-14571
▁Command	-14572
▁Dynasty	-14573
▁Effects	-14574
▁Finland	-14575
▁Letters	-14576
▁Reports	-14577
▁Swedish	-14578
▁Various	-14579
▁algebra	-14580
▁anatomy	-14581
▁catalog	-14582
▁closing	-14583
▁donated	-14584
▁fragile	-14585
▁imagery	-14586
▁migrate	-14587
▁pottery	-14588
▁refined	-14589
▁seventh	-14590
▁statues	-14591
▁venture	-14592
▁Americas	-14593
▁Original	-14594
▁Overview	-14595
▁clearing	-14596
▁compress	-14597
▁harmless	-14598
▁holistic	-14599
▁imprison	-14600
▁insomnia	-14601
▁landfill	-14602
▁limiting	-14603
▁metallic	-14604
▁microbes	-14605
▁nicotine	-14606
▁promises	-14607
▁publicly	-14608
▁rejected	-14609
▁vascular	-14610
▁veterans	-14611
▁vigorous	-14612
▁wherever	-14613
▁Europeans	-14614
▁Preschool	-14615
▁cathedral	-14616
▁composite	-14617
▁concludes	-14618
▁criticism	-14619
▁invertebr	-14620
▁parenting	-14621
▁passenger	-14622
▁recession	-14623
▁southeast	-14624
▁sponsored	-14625
▁Birmingham	-14626
▁Institutes	-14627
▁Monitoring	-14628
▁accordance	-14629
▁aggression	-14630
▁assumption	-14631
▁ceremonies	-14632
▁comparable	-14633
▁convention	-14634
▁excitement	-14635
▁hemisphere	-14636
▁inevitable	-14637
▁installing	-14638
▁organizing	-14639
▁personally	-14640
▁responding	-14641
▁unfamiliar	-14642
▁Atmospheric	-14643
▁centimeters	-14644
▁inexpensive	-14645
▁predictions	-14646
▁understands	-14647
▁commissioned	-14648
▁strengthening	-14649
▁constitutional	-14650
▁internationally	-14651
/8	-14652
2/	-14653
69	-14654
GR	-14655
Ge	-14656
HT	-14657
fs	-14658
hr	-14659
pi	-14660
50.	-14661
ATE	-14662
Int	-14663
Why	-14664
cap	-14665
dup	-14666
fin	-14667
imb	-14668
map	-14669
oqu	-14670
rup	-14671
tis	-14672
ulu	-14673
▁99	-14674
▁HE	-14675
ENCE	-14676
beat	-14677
edar	-14678
elli	-14679
enza	-14680
eros	-14681
kill	-14682
mass	-14683
ouch	-14684
supp	-14685
▁16.	-14686
▁18.	-14687
▁Ein	-14688
▁Kid	-14689
▁Slo	-14690
▁Tel	-14691
▁Wat	-14692
▁Yam	-14693
▁dip	-14694
▁hes	-14695
▁lux	-14696
▁mph	-14697
First	-14698
aders	-14699
ateur	-14700
heads	-14701
icans	-14702
mouth	-14703
obalt	-14704
ordon	-14705
orned	-14706
scape	-14707
uated	-14708
▁Acts	-14709
▁Beth	-14710
▁Cham	-14711
▁Cher	-14712
▁Days	-14713
▁Dent	-14714
▁Lang	-14715
▁Mead	-14716
▁Recy	-14717
▁Sure	-14718
▁brew	-14719
▁buzz	-14720
▁hind	-14721
▁mast	-14722
▁padd	-14723
▁pand	-14724
▁stir	-14725
▁tide	-14726
Source	-14727
family	-14728
ivated	-14729
levant	-14730
ocrats	-14731
orship	-14732
raints	-14733
verest	-14734
▁2003,	-14735
▁Demon	-14736
▁Forum	-14737
▁Fruit	-14738
▁Goals	-14739
▁Quinn	-14740
[...]
